{
    "activation_encodings": {
        "model.encoder.layers.0.conv": {
            "output": {
                "0": {
                    "bitwidth": 8,
                    "dtype": "int",
                    "is_symmetric": "False",
                    "max": 20.180007934570312,
                    "min": -18.222246170043945,
                    "offset": -121,
                    "scale": 0.15059708058834076
                }
            }
        },
        "model.encoder.layers.1.conv": {
            "output": {
                "0": {
                    "bitwidth": 8,
                    "dtype": "int",
                    "is_symmetric": "False",
                    "max": 15.341486930847168,
                    "min": -16.464035034179688,
                    "offset": -132,
                    "scale": 0.12472753971815109
                }
            }
        },
        "model.encoder.layers.10.conv": {
            "output": {
                "0": {
                    "bitwidth": 8,
                    "dtype": "int",
                    "is_symmetric": "False",
                    "max": 8.894152641296387,
                    "min": -9.849722862243652,
                    "offset": -134,
                    "scale": 0.07350539416074753
                }
            }
        },
        "model.encoder.layers.11.conv": {
            "output": {
                "0": {
                    "bitwidth": 8,
                    "dtype": "int",
                    "is_symmetric": "False",
                    "max": 8.05748462677002,
                    "min": -8.379783630371094,
                    "offset": -130,
                    "scale": 0.06445987522602081
                }
            }
        },
        "model.encoder.layers.12.conv": {
            "output": {
                "0": {
                    "bitwidth": 8,
                    "dtype": "int",
                    "is_symmetric": "False",
                    "max": 8.24323558807373,
                    "min": -9.570535659790039,
                    "offset": -137,
                    "scale": 0.06985792517662048
                }
            }
        },
        "model.encoder.layers.13.conv": {
            "output": {
                "0": {
                    "bitwidth": 8,
                    "dtype": "int",
                    "is_symmetric": "False",
                    "max": 7.453708648681641,
                    "min": -8.653882026672363,
                    "offset": -137,
                    "scale": 0.0631670206785202
                }
            }
        },
        "model.encoder.layers.14.conv": {
            "output": {
                "0": {
                    "bitwidth": 8,
                    "dtype": "int",
                    "is_symmetric": "False",
                    "max": 8.040719032287598,
                    "min": -8.494630813598633,
                    "offset": -131,
                    "scale": 0.064844511449337
                }
            }
        },
        "model.encoder.layers.15.conv": {
            "output": {
                "0": {
                    "bitwidth": 8,
                    "dtype": "int",
                    "is_symmetric": "False",
                    "max": 7.710925579071045,
                    "min": -7.531601905822754,
                    "offset": -126,
                    "scale": 0.05977461859583855
                }
            }
        },
        "model.encoder.layers.16.conv": {
            "output": {
                "0": {
                    "bitwidth": 8,
                    "dtype": "int",
                    "is_symmetric": "False",
                    "max": 6.091099262237549,
                    "min": -10.97736644744873,
                    "offset": -164,
                    "scale": 0.06693515926599503
                }
            }
        },
        "model.encoder.layers.17.conv": {
            "output": {
                "0": {
                    "bitwidth": 8,
                    "dtype": "int",
                    "is_symmetric": "False",
                    "max": 15.289623260498047,
                    "min": -13.80630111694336,
                    "offset": -121,
                    "scale": 0.11410166323184967
                }
            }
        },
        "model.encoder.layers.2.conv": {
            "output": {
                "0": {
                    "bitwidth": 8,
                    "dtype": "int",
                    "is_symmetric": "False",
                    "max": 13.46888542175293,
                    "min": -17.196880340576172,
                    "offset": -143,
                    "scale": 0.1202579066157341
                }
            }
        },
        "model.encoder.layers.3.conv": {
            "output": {
                "0": {
                    "bitwidth": 8,
                    "dtype": "int",
                    "is_symmetric": "False",
                    "max": 11.285478591918945,
                    "min": -11.922562599182129,
                    "offset": -131,
                    "scale": 0.09101192653179169
                }
            }
        },
        "model.encoder.layers.4.conv": {
            "output": {
                "0": {
                    "bitwidth": 8,
                    "dtype": "int",
                    "is_symmetric": "False",
                    "max": 8.103346824645996,
                    "min": -13.87913703918457,
                    "offset": -161,
                    "scale": 0.08620581775903702
                }
            }
        },
        "model.encoder.layers.5.conv": {
            "output": {
                "0": {
                    "bitwidth": 8,
                    "dtype": "int",
                    "is_symmetric": "False",
                    "max": 10.263434410095215,
                    "min": -10.50780200958252,
                    "offset": -129,
                    "scale": 0.08145582675933838
                }
            }
        },
        "model.encoder.layers.6.conv": {
            "output": {
                "0": {
                    "bitwidth": 8,
                    "dtype": "int",
                    "is_symmetric": "False",
                    "max": 8.156949996948242,
                    "min": -9.176568984985352,
                    "offset": -135,
                    "scale": 0.06797458231449127
                }
            }
        },
        "model.encoder.layers.7.conv": {
            "output": {
                "0": {
                    "bitwidth": 8,
                    "dtype": "int",
                    "is_symmetric": "False",
                    "max": 11.839022636413574,
                    "min": -11.031816482543945,
                    "offset": -123,
                    "scale": 0.08968956768512726
                }
            }
        },
        "model.encoder.layers.8.conv": {
            "output": {
                "0": {
                    "bitwidth": 8,
                    "dtype": "int",
                    "is_symmetric": "False",
                    "max": 11.695714950561523,
                    "min": -10.396191596984863,
                    "offset": -120,
                    "scale": 0.08663492649793625
                }
            }
        },
        "model.encoder.layers.9.conv": {
            "output": {
                "0": {
                    "bitwidth": 8,
                    "dtype": "int",
                    "is_symmetric": "False",
                    "max": 12.681077003479004,
                    "min": -8.733986854553223,
                    "offset": -104,
                    "scale": 0.08398064225912094
                }
            }
        },
        "model.state_conv.conv": {
            "output": {
                "0": {
                    "bitwidth": 8,
                    "dtype": "int",
                    "is_symmetric": "False",
                    "max": 5.861852645874023,
                    "min": -5.462181091308594,
                    "offset": -123,
                    "scale": 0.04440797492861748
                }
            }
        },
        "model.update_block.depth_head.conv1": {
            "input": {
                "0": {
                    "bitwidth": 8,
                    "dtype": "int",
                    "is_symmetric": "False",
                    "max": 1.003921627998352,
                    "min": -0.9960784912109375,
                    "offset": -127,
                    "scale": 0.007843137718737125
                }
            }
        },
        "model.update_block.depth_head.conv2": {
            "output": {
                "0": {
                    "bitwidth": 8,
                    "dtype": "int",
                    "is_symmetric": "False",
                    "max": 14.794698715209961,
                    "min": -4.651941299438477,
                    "offset": -61,
                    "scale": 0.07626133412122726
                }
            }
        },
        "model.update_block.depth_head.relu": {
            "output": {
                "0": {
                    "bitwidth": 8,
                    "dtype": "int",
                    "is_symmetric": "False",
                    "max": 9.96953010559082,
                    "min": 0.0,
                    "offset": 0,
                    "scale": 0.03909619525074959
                }
            }
        },
        "model.update_block.encoder.conv": {
            "input": {
                "0": {
                    "bitwidth": 8,
                    "dtype": "int",
                    "is_symmetric": "False",
                    "max": 28.770021438598633,
                    "min": 0.0,
                    "offset": 0,
                    "scale": 0.11282361298799515
                }
            },
            "output": {
                "0": {
                    "bitwidth": 8,
                    "dtype": "int",
                    "is_symmetric": "False",
                    "max": 109.73031616210938,
                    "min": -201.17225646972656,
                    "offset": -165,
                    "scale": 1.2192257642745972
                }
            }
        },
        "model.update_block.encoder.convc1": {
            "output": {
                "0": {
                    "bitwidth": 8,
                    "dtype": "int",
                    "is_symmetric": "False",
                    "max": 11.169962882995605,
                    "min": -17.031429290771484,
                    "offset": -154,
                    "scale": 0.11059369146823883
                }
            }
        },
        "model.update_block.encoder.convc2": {
            "output": {
                "0": {
                    "bitwidth": 8,
                    "dtype": "int",
                    "is_symmetric": "False",
                    "max": 19.025287628173828,
                    "min": -127.98828887939453,
                    "offset": -222,
                    "scale": 0.5765238404273987
                }
            }
        },
        "model.update_block.encoder.convd1": {
            "input": {
                "0": {
                    "bitwidth": 8,
                    "dtype": "int",
                    "is_symmetric": "False",
                    "max": 15.209440231323242,
                    "min": -1.6532000303268433,
                    "offset": -25,
                    "scale": 0.06612800061702728
                }
            },
            "output": {
                "0": {
                    "bitwidth": 8,
                    "dtype": "int",
                    "is_symmetric": "False",
                    "max": 13.586708068847656,
                    "min": -178.89166259765625,
                    "offset": -237,
                    "scale": 0.7548171281814575
                }
            }
        },
        "model.update_block.encoder.convd2": {
            "output": {
                "0": {
                    "bitwidth": 8,
                    "dtype": "int",
                    "is_symmetric": "False",
                    "max": 28.75113868713379,
                    "min": -97.65473175048828,
                    "offset": -197,
                    "scale": 0.49570930004119873
                }
            }
        },
        "model.update_block.gru.convq": {
            "input": {
                "0": {
                    "bitwidth": 8,
                    "dtype": "int",
                    "is_symmetric": "False",
                    "max": 110.19505310058594,
                    "min": -1.7560964822769165,
                    "offset": -4,
                    "scale": 0.4390241205692291
                }
            },
            "output": {
                "0": {
                    "bitwidth": 8,
                    "dtype": "int",
                    "is_symmetric": "False",
                    "max": 516.9186401367188,
                    "min": -411.3507385253906,
                    "offset": -113,
                    "scale": 3.6402721405029297
                }
            }
        },
        "model.update_block.gru.convr": {
            "input": {
                "0": {
                    "bitwidth": 8,
                    "dtype": "int",
                    "is_symmetric": "False",
                    "max": 110.19505310058594,
                    "min": -1.7560964822769165,
                    "offset": -4,
                    "scale": 0.4390241205692291
                }
            },
            "output": {
                "0": {
                    "bitwidth": 8,
                    "dtype": "int",
                    "is_symmetric": "False",
                    "max": 292.7442321777344,
                    "min": -285.93621826171875,
                    "offset": -126,
                    "scale": 2.2693350315093994
                }
            }
        },
        "model.update_block.gru.convz": {
            "input": {
                "0": {
                    "bitwidth": 8,
                    "dtype": "int",
                    "is_symmetric": "False",
                    "max": 110.19505310058594,
                    "min": -1.7560964822769165,
                    "offset": -4,
                    "scale": 0.4390241205692291
                }
            },
            "output": {
                "0": {
                    "bitwidth": 8,
                    "dtype": "int",
                    "is_symmetric": "False",
                    "max": 334.4060974121094,
                    "min": -161.37039184570312,
                    "offset": -83,
                    "scale": 1.9442214965820312
                }
            }
        },
        "model.update_block.mask.0": {
            "output": {
                "0": {
                    "bitwidth": 8,
                    "dtype": "int",
                    "is_symmetric": "False",
                    "max": 19.75274658203125,
                    "min": -21.53373146057129,
                    "offset": -133,
                    "scale": 0.16190776228904724
                }
            }
        },
        "model.update_block.mask.1": {
            "output": {
                "0": {
                    "bitwidth": 8,
                    "dtype": "int",
                    "is_symmetric": "False",
                    "max": 19.73501968383789,
                    "min": 0.0,
                    "offset": 0,
                    "scale": 0.07739223539829254
                }
            }
        },
        "model.update_block.mask.2": {
            "output": {
                "0": {
                    "bitwidth": 8,
                    "dtype": "int",
                    "is_symmetric": "False",
                    "max": 40.532508850097656,
                    "min": -91.97761535644531,
                    "offset": -177,
                    "scale": 0.5196475386619568
                }
            }
        },
        "model.volume_gen.reference_mapping.linear1": {
            "input": {
                "0": {
                    "bitwidth": 8,
                    "dtype": "int",
                    "is_symmetric": "False",
                    "max": 15.289445877075195,
                    "min": -13.80614185333252,
                    "offset": -121,
                    "scale": 0.11410034447908401
                }
            },
            "output": {
                "0": {
                    "bitwidth": 8,
                    "dtype": "int",
                    "is_symmetric": "False",
                    "max": 9.76720142364502,
                    "min": -8.95938777923584,
                    "offset": -122,
                    "scale": 0.07343760132789612
                }
            }
        },
        "model.volume_gen.reference_mapping.linear2": {
            "output": {
                "0": {
                    "bitwidth": 8,
                    "dtype": "int",
                    "is_symmetric": "False",
                    "max": 3.014760732650757,
                    "min": -3.911040782928467,
                    "offset": -144,
                    "scale": 0.027160005643963814
                }
            }
        },
        "model.volume_gen.reference_mapping.relu": {
            "output": {
                "0": {
                    "bitwidth": 8,
                    "dtype": "int",
                    "is_symmetric": "False",
                    "max": 9.749588012695312,
                    "min": 0.0,
                    "offset": 0,
                    "scale": 0.0382336787879467
                }
            }
        },
        "model.volume_gen.target_mapping.linear1": {
            "input": {
                "0": {
                    "bitwidth": 8,
                    "dtype": "int",
                    "is_symmetric": "False",
                    "max": 14.599985122680664,
                    "min": -13.604531288146973,
                    "offset": -123,
                    "scale": 0.11060594767332077
                }
            },
            "output": {
                "0": {
                    "bitwidth": 8,
                    "dtype": "int",
                    "is_symmetric": "False",
                    "max": 19.001243591308594,
                    "min": -16.109750747680664,
                    "offset": -117,
                    "scale": 0.13769017159938812
                }
            }
        },
        "model.volume_gen.target_mapping.linear2": {
            "output": {
                "0": {
                    "bitwidth": 8,
                    "dtype": "int",
                    "is_symmetric": "False",
                    "max": 6.560383319854736,
                    "min": -11.236400604248047,
                    "offset": -161,
                    "scale": 0.06979130953550339
                }
            }
        },
        "model.volume_gen.target_mapping.out_act": {
            "output": {
                "0": {
                    "bitwidth": 8,
                    "dtype": "int",
                    "is_symmetric": "False",
                    "max": 0.9986079335212708,
                    "min": 0.0,
                    "offset": 0,
                    "scale": 0.003916109446436167
                }
            }
        },
        "model.volume_gen.target_mapping.relu": {
            "output": {
                "0": {
                    "bitwidth": 8,
                    "dtype": "int",
                    "is_symmetric": "False",
                    "max": 19.051538467407227,
                    "min": 0.0,
                    "offset": 0,
                    "scale": 0.07471191883087158
                }
            }
        }
    },
    "excluded_layers": [],
    "param_encodings": {
        "model.encoder.layers.0.conv.weight": [
            {
                "bitwidth": 8,
                "dtype": "int",
                "is_symmetric": "True",
                "max": 1.6441453695297241,
                "min": -1.6570913791656494,
                "offset": -128,
                "scale": 0.012946026399731636
            },
            {
                "bitwidth": 8,
                "dtype": "int",
                "is_symmetric": "True",
                "max": 0.35093846917152405,
                "min": -0.35370177030563354,
                "offset": -128,
                "scale": 0.002763295080512762
            },
            {
                "bitwidth": 8,
                "dtype": "int",
                "is_symmetric": "True",
                "max": 1.0524985790252686,
                "min": -1.0607860088348389,
                "offset": -128,
                "scale": 0.008287390694022179
            },
            {
                "bitwidth": 8,
                "dtype": "int",
                "is_symmetric": "True",
                "max": 0.6308305859565735,
                "min": -0.6357977390289307,
                "offset": -128,
                "scale": 0.004967169836163521
            },
            {
                "bitwidth": 8,
                "dtype": "int",
                "is_symmetric": "True",
                "max": 0.3180971145629883,
                "min": -0.32060182094573975,
                "offset": -128,
                "scale": 0.0025047017261385918
            },
            {
                "bitwidth": 8,
                "dtype": "int",
                "is_symmetric": "True",
                "max": 0.6693824529647827,
                "min": -0.674653172492981,
                "offset": -128,
                "scale": 0.005270727910101414
            },
            {
                "bitwidth": 8,
                "dtype": "int",
                "is_symmetric": "True",
                "max": 0.7354276776313782,
                "min": -0.7412184476852417,
                "offset": -128,
                "scale": 0.005790769122540951
            },
            {
                "bitwidth": 8,
                "dtype": "int",
                "is_symmetric": "True",
                "max": 0.6613714694976807,
                "min": -0.6665791273117065,
                "offset": -128,
                "scale": 0.005207649432122707
            },
            {
                "bitwidth": 8,
                "dtype": "int",
                "is_symmetric": "True",
                "max": 0.6423162817955017,
                "min": -0.6473739147186279,
                "offset": -128,
                "scale": 0.005057608708739281
            },
            {
                "bitwidth": 8,
                "dtype": "int",
                "is_symmetric": "True",
                "max": 1.1283127069473267,
                "min": -1.1371970176696777,
                "offset": -128,
                "scale": 0.008884351700544357
            },
            {
                "bitwidth": 8,
                "dtype": "int",
                "is_symmetric": "True",
                "max": 0.3635660409927368,
                "min": -0.36642876267433167,
                "offset": -128,
                "scale": 0.002862724708393216
            },
            {
                "bitwidth": 8,
                "dtype": "int",
                "is_symmetric": "True",
                "max": 0.5219476819038391,
                "min": -0.5260574817657471,
                "offset": -128,
                "scale": 0.004109824076294899
            },
            {
                "bitwidth": 8,
                "dtype": "int",
                "is_symmetric": "True",
                "max": 0.6581637859344482,
                "min": -0.6633461713790894,
                "offset": -128,
                "scale": 0.005182391963899136
            },
            {
                "bitwidth": 8,
                "dtype": "int",
                "is_symmetric": "True",
                "max": 0.6766229271888733,
                "min": -0.6819506883621216,
                "offset": -128,
                "scale": 0.005327739752829075
            },
            {
                "bitwidth": 8,
                "dtype": "int",
                "is_symmetric": "True",
                "max": 0.49470165371894836,
                "min": -0.4985969364643097,
                "offset": -128,
                "scale": 0.0038952885661274195
            },
            {
                "bitwidth": 8,
                "dtype": "int",
                "is_symmetric": "True",
                "max": 0.47145283222198486,
                "min": -0.47516506910324097,
                "offset": -128,
                "scale": 0.00371222710236907
            },
            {
                "bitwidth": 8,
                "dtype": "int",
                "is_symmetric": "True",
                "max": 0.5258687734603882,
                "min": -0.5300094485282898,
                "offset": -128,
                "scale": 0.004140698816627264
            },
            {
                "bitwidth": 8,
                "dtype": "int",
                "is_symmetric": "True",
                "max": 0.6390151977539062,
                "min": -0.6440467834472656,
                "offset": -128,
                "scale": 0.005031615495681763
            },
            {
                "bitwidth": 8,
                "dtype": "int",
                "is_symmetric": "True",
                "max": 0.5324389934539795,
                "min": -0.5366314053535461,
                "offset": -128,
                "scale": 0.004192432854324579
            },
            {
                "bitwidth": 8,
                "dtype": "int",
                "is_symmetric": "True",
                "max": 0.872474193572998,
                "min": -0.8793440461158752,
                "offset": -128,
                "scale": 0.006869875360280275
            },
            {
                "bitwidth": 8,
                "dtype": "int",
                "is_symmetric": "True",
                "max": 0.257738322019577,
                "min": -0.2597677707672119,
                "offset": -128,
                "scale": 0.002029435709118843
            },
            {
                "bitwidth": 8,
                "dtype": "int",
                "is_symmetric": "True",
                "max": 0.2917789816856384,
                "min": -0.29407644271850586,
                "offset": -128,
                "scale": 0.002297472208738327
            },
            {
                "bitwidth": 8,
                "dtype": "int",
                "is_symmetric": "True",
                "max": 0.37416234612464905,
                "min": -0.37710851430892944,
                "offset": -128,
                "scale": 0.0029461602680385113
            },
            {
                "bitwidth": 8,
                "dtype": "int",
                "is_symmetric": "True",
                "max": 0.3128257095813751,
                "min": -0.3152889013290405,
                "offset": -128,
                "scale": 0.002463194541633129
            },
            {
                "bitwidth": 8,
                "dtype": "int",
                "is_symmetric": "True",
                "max": 0.5056400299072266,
                "min": -0.5096214413642883,
                "offset": -128,
                "scale": 0.003981417510658503
            },
            {
                "bitwidth": 8,
                "dtype": "int",
                "is_symmetric": "True",
                "max": 0.2799692451953888,
                "min": -0.2821737229824066,
                "offset": -128,
                "scale": 0.0022044822108000517
            },
            {
                "bitwidth": 8,
                "dtype": "int",
                "is_symmetric": "True",
                "max": 1.027219533920288,
                "min": -1.0353078842163086,
                "offset": -128,
                "scale": 0.008088342845439911
            },
            {
                "bitwidth": 8,
                "dtype": "int",
                "is_symmetric": "True",
                "max": 0.4700024724006653,
                "min": -0.4737032651901245,
                "offset": -128,
                "scale": 0.0037008067592978477
            },
            {
                "bitwidth": 8,
                "dtype": "int",
                "is_symmetric": "True",
                "max": 0.2575477659702301,
                "min": -0.2595756947994232,
                "offset": -128,
                "scale": 0.002027935115620494
            },
            {
                "bitwidth": 8,
                "dtype": "int",
                "is_symmetric": "True",
                "max": 0.8459216356277466,
                "min": -0.8525824546813965,
                "offset": -128,
                "scale": 0.00666080042719841
            },
            {
                "bitwidth": 8,
                "dtype": "int",
                "is_symmetric": "True",
                "max": 0.5668350458145142,
                "min": -0.5712983012199402,
                "offset": -128,
                "scale": 0.004463267978280783
            },
            {
                "bitwidth": 8,
                "dtype": "int",
                "is_symmetric": "True",
                "max": 0.6260339617729187,
                "min": -0.6309633851051331,
                "offset": -128,
                "scale": 0.004929401446133852
            }
        ],
        "model.encoder.layers.1.conv.weight": [
            {
                "bitwidth": 8,
                "dtype": "int",
                "is_symmetric": "True",
                "max": 0.14682874083518982,
                "min": -0.14798487722873688,
                "offset": -128,
                "scale": 0.0011561318533495069
            },
            {
                "bitwidth": 8,
                "dtype": "int",
                "is_symmetric": "True",
                "max": 0.08896167576313019,
                "min": -0.08966216444969177,
                "offset": -128,
                "scale": 0.000700485659763217
            },
            {
                "bitwidth": 8,
                "dtype": "int",
                "is_symmetric": "True",
                "max": 0.19383592903614044,
                "min": -0.19536219537258148,
                "offset": -128,
                "scale": 0.0015262671513482928
            },
            {
                "bitwidth": 8,
                "dtype": "int",
                "is_symmetric": "True",
                "max": 0.09181159734725952,
                "min": -0.09253451973199844,
                "offset": -128,
                "scale": 0.0007229259354062378
            },
            {
                "bitwidth": 8,
                "dtype": "int",
                "is_symmetric": "True",
                "max": 0.08818493038415909,
                "min": -0.0888793021440506,
                "offset": -128,
                "scale": 0.0006943695480003953
            },
            {
                "bitwidth": 8,
                "dtype": "int",
                "is_symmetric": "True",
                "max": 0.13896159827709198,
                "min": -0.1400557905435562,
                "offset": -128,
                "scale": 0.001094185863621533
            },
            {
                "bitwidth": 8,
                "dtype": "int",
                "is_symmetric": "True",
                "max": 0.1181379035115242,
                "min": -0.11906812340021133,
                "offset": -128,
                "scale": 0.000930219714064151
            },
            {
                "bitwidth": 8,
                "dtype": "int",
                "is_symmetric": "True",
                "max": 0.12149006128311157,
                "min": -0.12244667857885361,
                "offset": -128,
                "scale": 0.0009566146763972938
            },
            {
                "bitwidth": 8,
                "dtype": "int",
                "is_symmetric": "True",
                "max": 0.12764056026935577,
                "min": -0.12864559888839722,
                "offset": -128,
                "scale": 0.0010050437413156033
            },
            {
                "bitwidth": 8,
                "dtype": "int",
                "is_symmetric": "True",
                "max": 0.13828206062316895,
                "min": -0.1393708884716034,
                "offset": -128,
                "scale": 0.0010888350661844015
            },
            {
                "bitwidth": 8,
                "dtype": "int",
                "is_symmetric": "True",
                "max": 0.15739993751049042,
                "min": -0.1586393117904663,
                "offset": -128,
                "scale": 0.001239369623363018
            },
            {
                "bitwidth": 8,
                "dtype": "int",
                "is_symmetric": "True",
                "max": 0.16178110241889954,
                "min": -0.16305497288703918,
                "offset": -128,
                "scale": 0.0012738669756799936
            },
            {
                "bitwidth": 8,
                "dtype": "int",
                "is_symmetric": "True",
                "max": 0.09773685783147812,
                "min": -0.09850643575191498,
                "offset": -128,
                "scale": 0.0007695815293118358
            },
            {
                "bitwidth": 8,
                "dtype": "int",
                "is_symmetric": "True",
                "max": 0.1030767410993576,
                "min": -0.1038883700966835,
                "offset": -128,
                "scale": 0.0008116278913803399
            },
            {
                "bitwidth": 8,
                "dtype": "int",
                "is_symmetric": "True",
                "max": 0.2110944539308548,
                "min": -0.21275661885738373,
                "offset": -128,
                "scale": 0.0016621610848233104
            },
            {
                "bitwidth": 8,
                "dtype": "int",
                "is_symmetric": "True",
                "max": 0.08186579495668411,
                "min": -0.08251040428876877,
                "offset": -128,
                "scale": 0.000644612533506006
            },
            {
                "bitwidth": 8,
                "dtype": "int",
                "is_symmetric": "True",
                "max": 0.16765305399894714,
                "min": -0.1689731627702713,
                "offset": -128,
                "scale": 0.0013201028341427445
            },
            {
                "bitwidth": 8,
                "dtype": "int",
                "is_symmetric": "True",
                "max": 0.19455593824386597,
                "min": -0.19608788192272186,
                "offset": -128,
                "scale": 0.0015319365775212646
            },
            {
                "bitwidth": 8,
                "dtype": "int",
                "is_symmetric": "True",
                "max": 0.08414643257856369,
                "min": -0.08480900526046753,
                "offset": -128,
                "scale": 0.0006625703535974026
            },
            {
                "bitwidth": 8,
                "dtype": "int",
                "is_symmetric": "True",
                "max": 0.09900811314582825,
                "min": -0.09978770464658737,
                "offset": -128,
                "scale": 0.0007795914425514638
            },
            {
                "bitwidth": 8,
                "dtype": "int",
                "is_symmetric": "True",
                "max": 0.21405936777591705,
                "min": -0.21574486792087555,
                "offset": -128,
                "scale": 0.0016855067806318402
            },
            {
                "bitwidth": 8,
                "dtype": "int",
                "is_symmetric": "True",
                "max": 0.16236990690231323,
                "min": -0.16364841163158417,
                "offset": -128,
                "scale": 0.0012785032158717513
            },
            {
                "bitwidth": 8,
                "dtype": "int",
                "is_symmetric": "True",
                "max": 0.08320893347263336,
                "min": -0.08386412262916565,
                "offset": -128,
                "scale": 0.0006551884580403566
            },
            {
                "bitwidth": 8,
                "dtype": "int",
                "is_symmetric": "True",
                "max": 0.15265999734401703,
                "min": -0.15386204421520233,
                "offset": -128,
                "scale": 0.0012020472204312682
            },
            {
                "bitwidth": 8,
                "dtype": "int",
                "is_symmetric": "True",
                "max": 0.1183742806315422,
                "min": -0.11930636316537857,
                "offset": -128,
                "scale": 0.0009320809622295201
            },
            {
                "bitwidth": 8,
                "dtype": "int",
                "is_symmetric": "True",
                "max": 0.12901337444782257,
                "min": -0.13002923130989075,
                "offset": -128,
                "scale": 0.0010158533696085215
            },
            {
                "bitwidth": 8,
                "dtype": "int",
                "is_symmetric": "True",
                "max": 0.08114243298768997,
                "min": -0.08178135007619858,
                "offset": -128,
                "scale": 0.0006389167974703014
            },
            {
                "bitwidth": 8,
                "dtype": "int",
                "is_symmetric": "True",
                "max": 0.12951894104480743,
                "min": -0.13053877651691437,
                "offset": -128,
                "scale": 0.0010198341915383935
            },
            {
                "bitwidth": 8,
                "dtype": "int",
                "is_symmetric": "True",
                "max": 0.18125881254673004,
                "min": -0.18268604576587677,
                "offset": -128,
                "scale": 0.0014272347325459123
            },
            {
                "bitwidth": 8,
                "dtype": "int",
                "is_symmetric": "True",
                "max": 0.12099581956863403,
                "min": -0.12194854021072388,
                "offset": -128,
                "scale": 0.0009527229703962803
            },
            {
                "bitwidth": 8,
                "dtype": "int",
                "is_symmetric": "True",
                "max": 0.11904025822877884,
                "min": -0.11997758597135544,
                "offset": -128,
                "scale": 0.0009373248904012144
            },
            {
                "bitwidth": 8,
                "dtype": "int",
                "is_symmetric": "True",
                "max": 0.1559489369392395,
                "min": -0.1571768820285797,
                "offset": -128,
                "scale": 0.001227944390848279
            }
        ],
        "model.encoder.layers.10.conv.weight": [
            {
                "bitwidth": 8,
                "dtype": "int",
                "is_symmetric": "True",
                "max": 0.10171864181756973,
                "min": -0.10251957923173904,
                "offset": -128,
                "scale": 0.0008009342127479613
            },
            {
                "bitwidth": 8,
                "dtype": "int",
                "is_symmetric": "True",
                "max": 0.08732666075229645,
                "min": -0.08801427483558655,
                "offset": -128,
                "scale": 0.0006876115221530199
            },
            {
                "bitwidth": 8,
                "dtype": "int",
                "is_symmetric": "True",
                "max": 0.12319228798151016,
                "min": -0.12416230887174606,
                "offset": -128,
                "scale": 0.0009700180380605161
            },
            {
                "bitwidth": 8,
                "dtype": "int",
                "is_symmetric": "True",
                "max": 0.07935943454504013,
                "min": -0.07998431473970413,
                "offset": -128,
                "scale": 0.0006248774589039385
            },
            {
                "bitwidth": 8,
                "dtype": "int",
                "is_symmetric": "True",
                "max": 0.08304991573095322,
                "min": -0.08370385318994522,
                "offset": -128,
                "scale": 0.000653936353046447
            },
            {
                "bitwidth": 8,
                "dtype": "int",
                "is_symmetric": "True",
                "max": 0.08659800887107849,
                "min": -0.08727988600730896,
                "offset": -128,
                "scale": 0.0006818741094321012
            },
            {
                "bitwidth": 8,
                "dtype": "int",
                "is_symmetric": "True",
                "max": 0.07583831995725632,
                "min": -0.07643546909093857,
                "offset": -128,
                "scale": 0.0005971521022729576
            },
            {
                "bitwidth": 8,
                "dtype": "int",
                "is_symmetric": "True",
                "max": 0.14390794932842255,
                "min": -0.1450410783290863,
                "offset": -128,
                "scale": 0.0011331334244459867
            },
            {
                "bitwidth": 8,
                "dtype": "int",
                "is_symmetric": "True",
                "max": 0.060881443321704865,
                "min": -0.06136082485318184,
                "offset": -128,
                "scale": 0.0004793814441654831
            },
            {
                "bitwidth": 8,
                "dtype": "int",
                "is_symmetric": "True",
                "max": 0.10249625146389008,
                "min": -0.10330330580472946,
                "offset": -128,
                "scale": 0.0008070570765994489
            },
            {
                "bitwidth": 8,
                "dtype": "int",
                "is_symmetric": "True",
                "max": 0.12070723623037338,
                "min": -0.12165768444538116,
                "offset": -128,
                "scale": 0.0009504506597295403
            },
            {
                "bitwidth": 8,
                "dtype": "int",
                "is_symmetric": "True",
                "max": 0.11936492472887039,
                "min": -0.12030480802059174,
                "offset": -128,
                "scale": 0.0009398813126608729
            },
            {
                "bitwidth": 8,
                "dtype": "int",
                "is_symmetric": "True",
                "max": 0.0738692507147789,
                "min": -0.07445089519023895,
                "offset": -128,
                "scale": 0.0005816476186737418
            },
            {
                "bitwidth": 8,
                "dtype": "int",
                "is_symmetric": "True",
                "max": 0.09325700998306274,
                "min": -0.09399131685495377,
                "offset": -128,
                "scale": 0.0007343071629293263
            },
            {
                "bitwidth": 8,
                "dtype": "int",
                "is_symmetric": "True",
                "max": 0.0885002464056015,
                "min": -0.08919709920883179,
                "offset": -128,
                "scale": 0.0006968523375689983
            },
            {
                "bitwidth": 8,
                "dtype": "int",
                "is_symmetric": "True",
                "max": 0.07450217753648758,
                "min": -0.07508880645036697,
                "offset": -128,
                "scale": 0.000586631300393492
            },
            {
                "bitwidth": 8,
                "dtype": "int",
                "is_symmetric": "True",
                "max": 0.07084320485591888,
                "min": -0.07140102237462997,
                "offset": -128,
                "scale": 0.0005578204873017967
            },
            {
                "bitwidth": 8,
                "dtype": "int",
                "is_symmetric": "True",
                "max": 0.1491544544696808,
                "min": -0.15032890439033508,
                "offset": -128,
                "scale": 0.0011744445655494928
            },
            {
                "bitwidth": 8,
                "dtype": "int",
                "is_symmetric": "True",
                "max": 0.09577424824237823,
                "min": -0.09652837365865707,
                "offset": -128,
                "scale": 0.0007541279192082584
            },
            {
                "bitwidth": 8,
                "dtype": "int",
                "is_symmetric": "True",
                "max": 0.08584585040807724,
                "min": -0.08652180433273315,
                "offset": -128,
                "scale": 0.0006759515963494778
            },
            {
                "bitwidth": 8,
                "dtype": "int",
                "is_symmetric": "True",
                "max": 0.0970902144908905,
                "min": -0.09785470366477966,
                "offset": -128,
                "scale": 0.0007644898723810911
            },
            {
                "bitwidth": 8,
                "dtype": "int",
                "is_symmetric": "True",
                "max": 0.11418610066175461,
                "min": -0.11508520692586899,
                "offset": -128,
                "scale": 0.0008991031791083515
            },
            {
                "bitwidth": 8,
                "dtype": "int",
                "is_symmetric": "True",
                "max": 0.08528019487857819,
                "min": -0.08595169335603714,
                "offset": -128,
                "scale": 0.0006714976043440402
            },
            {
                "bitwidth": 8,
                "dtype": "int",
                "is_symmetric": "True",
                "max": 0.058483902364969254,
                "min": -0.05894440412521362,
                "offset": -128,
                "scale": 0.00046050315722823143
            },
            {
                "bitwidth": 8,
                "dtype": "int",
                "is_symmetric": "True",
                "max": 0.07390399277210236,
                "min": -0.0744859129190445,
                "offset": -128,
                "scale": 0.0005819211946800351
            },
            {
                "bitwidth": 8,
                "dtype": "int",
                "is_symmetric": "True",
                "max": 0.09140590578317642,
                "min": -0.09212563931941986,
                "offset": -128,
                "scale": 0.0007197315571829677
            },
            {
                "bitwidth": 8,
                "dtype": "int",
                "is_symmetric": "True",
                "max": 0.12764470279216766,
                "min": -0.1286497861146927,
                "offset": -128,
                "scale": 0.0010050764540210366
            },
            {
                "bitwidth": 8,
                "dtype": "int",
                "is_symmetric": "True",
                "max": 0.11198753118515015,
                "min": -0.11286932229995728,
                "offset": -128,
                "scale": 0.0008817915804684162
            },
            {
                "bitwidth": 8,
                "dtype": "int",
                "is_symmetric": "True",
                "max": 0.09315794706344604,
                "min": -0.09389147162437439,
                "offset": -128,
                "scale": 0.0007335271220654249
            },
            {
                "bitwidth": 8,
                "dtype": "int",
                "is_symmetric": "True",
                "max": 0.10454969108104706,
                "min": -0.10537292063236237,
                "offset": -128,
                "scale": 0.000823225942440331
            },
            {
                "bitwidth": 8,
                "dtype": "int",
                "is_symmetric": "True",
                "max": 0.09719783812761307,
                "min": -0.09796317666769028,
                "offset": -128,
                "scale": 0.0007653373177163303
            },
            {
                "bitwidth": 8,
                "dtype": "int",
                "is_symmetric": "True",
                "max": 0.07948494702577591,
                "min": -0.0801108106970787,
                "offset": -128,
                "scale": 0.0006258657085709274
            }
        ],
        "model.encoder.layers.11.conv.weight": [
            {
                "bitwidth": 8,
                "dtype": "int",
                "is_symmetric": "True",
                "max": 0.16447561979293823,
                "min": -0.16577070951461792,
                "offset": -128,
                "scale": 0.0012950836680829525
            },
            {
                "bitwidth": 8,
                "dtype": "int",
                "is_symmetric": "True",
                "max": 0.16180941462516785,
                "min": -0.1630835086107254,
                "offset": -128,
                "scale": 0.0012740899110212922
            },
            {
                "bitwidth": 8,
                "dtype": "int",
                "is_symmetric": "True",
                "max": 0.18632009625434875,
                "min": -0.18778719007968903,
                "offset": -128,
                "scale": 0.0014670874224975705
            },
            {
                "bitwidth": 8,
                "dtype": "int",
                "is_symmetric": "True",
                "max": 0.1717342883348465,
                "min": -0.1730865240097046,
                "offset": -128,
                "scale": 0.001352238468825817
            },
            {
                "bitwidth": 8,
                "dtype": "int",
                "is_symmetric": "True",
                "max": 0.1524026244878769,
                "min": -0.15360264480113983,
                "offset": -128,
                "scale": 0.001200020662508905
            },
            {
                "bitwidth": 8,
                "dtype": "int",
                "is_symmetric": "True",
                "max": 0.13045793771743774,
                "min": -0.13148516416549683,
                "offset": -128,
                "scale": 0.001027227845042944
            },
            {
                "bitwidth": 8,
                "dtype": "int",
                "is_symmetric": "True",
                "max": 0.08591614663600922,
                "min": -0.0865926519036293,
                "offset": -128,
                "scale": 0.0006765050929971039
            },
            {
                "bitwidth": 8,
                "dtype": "int",
                "is_symmetric": "True",
                "max": 0.12135246396064758,
                "min": -0.12230799347162247,
                "offset": -128,
                "scale": 0.0009555311989970505
            },
            {
                "bitwidth": 8,
                "dtype": "int",
                "is_symmetric": "True",
                "max": 0.14124378561973572,
                "min": -0.14235594868659973,
                "offset": -128,
                "scale": 0.0011121558491140604
            },
            {
                "bitwidth": 8,
                "dtype": "int",
                "is_symmetric": "True",
                "max": 0.14030161499977112,
                "min": -0.1414063572883606,
                "offset": -128,
                "scale": 0.0011047371663153172
            },
            {
                "bitwidth": 8,
                "dtype": "int",
                "is_symmetric": "True",
                "max": 0.1410588175058365,
                "min": -0.1421695202589035,
                "offset": -128,
                "scale": 0.0011106993770226836
            },
            {
                "bitwidth": 8,
                "dtype": "int",
                "is_symmetric": "True",
                "max": 0.08830072730779648,
                "min": -0.08899600803852081,
                "offset": -128,
                "scale": 0.0006952813128009439
            },
            {
                "bitwidth": 8,
                "dtype": "int",
                "is_symmetric": "True",
                "max": 0.17535695433616638,
                "min": -0.1767377108335495,
                "offset": -128,
                "scale": 0.0013807633658871055
            },
            {
                "bitwidth": 8,
                "dtype": "int",
                "is_symmetric": "True",
                "max": 0.17148584127426147,
                "min": -0.17283612489700317,
                "offset": -128,
                "scale": 0.0013502822257578373
            },
            {
                "bitwidth": 8,
                "dtype": "int",
                "is_symmetric": "True",
                "max": 0.14128150045871735,
                "min": -0.14239394664764404,
                "offset": -128,
                "scale": 0.001112452708184719
            },
            {
                "bitwidth": 8,
                "dtype": "int",
                "is_symmetric": "True",
                "max": 0.15936240553855896,
                "min": -0.16061723232269287,
                "offset": -128,
                "scale": 0.001254822127521038
            },
            {
                "bitwidth": 8,
                "dtype": "int",
                "is_symmetric": "True",
                "max": 0.15273861587047577,
                "min": -0.1539412885904312,
                "offset": -128,
                "scale": 0.0012026663171127439
            },
            {
                "bitwidth": 8,
                "dtype": "int",
                "is_symmetric": "True",
                "max": 0.17752839624881744,
                "min": -0.1789262592792511,
                "offset": -128,
                "scale": 0.0013978614006191492
            },
            {
                "bitwidth": 8,
                "dtype": "int",
                "is_symmetric": "True",
                "max": 0.09322215616703033,
                "min": -0.09395618736743927,
                "offset": -128,
                "scale": 0.0007340327138081193
            },
            {
                "bitwidth": 8,
                "dtype": "int",
                "is_symmetric": "True",
                "max": 0.13789871335029602,
                "min": -0.1389845311641693,
                "offset": -128,
                "scale": 0.0010858166497200727
            },
            {
                "bitwidth": 8,
                "dtype": "int",
                "is_symmetric": "True",
                "max": 0.12360187619924545,
                "min": -0.12457511574029922,
                "offset": -128,
                "scale": 0.0009732430917210877
            },
            {
                "bitwidth": 8,
                "dtype": "int",
                "is_symmetric": "True",
                "max": 0.16253460943698883,
                "min": -0.16381441056728363,
                "offset": -128,
                "scale": 0.0012798000825569034
            },
            {
                "bitwidth": 8,
                "dtype": "int",
                "is_symmetric": "True",
                "max": 0.12309039384126663,
                "min": -0.12405961006879807,
                "offset": -128,
                "scale": 0.0009692157036624849
            },
            {
                "bitwidth": 8,
                "dtype": "int",
                "is_symmetric": "True",
                "max": 0.15047810971736908,
                "min": -0.15166297554969788,
                "offset": -128,
                "scale": 0.0011848669964820147
            },
            {
                "bitwidth": 8,
                "dtype": "int",
                "is_symmetric": "True",
                "max": 0.13593047857284546,
                "min": -0.13700079917907715,
                "offset": -128,
                "scale": 0.0010703187435865402
            },
            {
                "bitwidth": 8,
                "dtype": "int",
                "is_symmetric": "True",
                "max": 0.11125972867012024,
                "min": -0.11213579028844833,
                "offset": -128,
                "scale": 0.0008760608616285026
            },
            {
                "bitwidth": 8,
                "dtype": "int",
                "is_symmetric": "True",
                "max": 0.13495580852031708,
                "min": -0.13601845502853394,
                "offset": -128,
                "scale": 0.0010626441799104214
            },
            {
                "bitwidth": 8,
                "dtype": "int",
                "is_symmetric": "True",
                "max": 0.08516375720500946,
                "min": -0.08583433926105499,
                "offset": -128,
                "scale": 0.0006705807754769921
            },
            {
                "bitwidth": 8,
                "dtype": "int",
                "is_symmetric": "True",
                "max": 0.1288268119096756,
                "min": -0.12984119355678558,
                "offset": -128,
                "scale": 0.0010143843246623874
            },
            {
                "bitwidth": 8,
                "dtype": "int",
                "is_symmetric": "True",
                "max": 0.12533225119113922,
                "min": -0.12631912529468536,
                "offset": -128,
                "scale": 0.0009868681663647294
            },
            {
                "bitwidth": 8,
                "dtype": "int",
                "is_symmetric": "True",
                "max": 0.13984866440296173,
                "min": -0.14094983041286469,
                "offset": -128,
                "scale": 0.0011011705501005054
            },
            {
                "bitwidth": 8,
                "dtype": "int",
                "is_symmetric": "True",
                "max": 0.10863056778907776,
                "min": -0.109485924243927,
                "offset": -128,
                "scale": 0.0008553587831556797
            }
        ],
        "model.encoder.layers.12.conv.weight": [
            {
                "bitwidth": 8,
                "dtype": "int",
                "is_symmetric": "True",
                "max": 0.20677067339420319,
                "min": -0.20839878916740417,
                "offset": -128,
                "scale": 0.0016281155403703451
            },
            {
                "bitwidth": 8,
                "dtype": "int",
                "is_symmetric": "True",
                "max": 0.22220297157764435,
                "min": -0.22395260632038116,
                "offset": -128,
                "scale": 0.0017496297368779778
            },
            {
                "bitwidth": 8,
                "dtype": "int",
                "is_symmetric": "True",
                "max": 0.1852840930223465,
                "min": -0.18674302101135254,
                "offset": -128,
                "scale": 0.0014589298516511917
            },
            {
                "bitwidth": 8,
                "dtype": "int",
                "is_symmetric": "True",
                "max": 0.13102661073207855,
                "min": -0.13205832242965698,
                "offset": -128,
                "scale": 0.0010317056439816952
            },
            {
                "bitwidth": 8,
                "dtype": "int",
                "is_symmetric": "True",
                "max": 0.1788208931684494,
                "min": -0.18022893369197845,
                "offset": -128,
                "scale": 0.0014080385444685817
            },
            {
                "bitwidth": 8,
                "dtype": "int",
                "is_symmetric": "True",
                "max": 0.23534393310546875,
                "min": -0.23719704151153564,
                "offset": -128,
                "scale": 0.0018531018868088722
            },
            {
                "bitwidth": 8,
                "dtype": "int",
                "is_symmetric": "True",
                "max": 0.2633143961429596,
                "min": -0.26538774371147156,
                "offset": -128,
                "scale": 0.0020733417477458715
            },
            {
                "bitwidth": 8,
                "dtype": "int",
                "is_symmetric": "True",
                "max": 0.20832966268062592,
                "min": -0.20997005701065063,
                "offset": -128,
                "scale": 0.001640391070395708
            },
            {
                "bitwidth": 8,
                "dtype": "int",
                "is_symmetric": "True",
                "max": 0.1379203349351883,
                "min": -0.13900631666183472,
                "offset": -128,
                "scale": 0.0010859868489205837
            },
            {
                "bitwidth": 8,
                "dtype": "int",
                "is_symmetric": "True",
                "max": 0.19659152626991272,
                "min": -0.198139488697052,
                "offset": -128,
                "scale": 0.0015479647554457188
            },
            {
                "bitwidth": 8,
                "dtype": "int",
                "is_symmetric": "True",
                "max": 0.3000629246234894,
                "min": -0.3024256229400635,
                "offset": -128,
                "scale": 0.002362700179219246
            },
            {
                "bitwidth": 8,
                "dtype": "int",
                "is_symmetric": "True",
                "max": 0.2642700970172882,
                "min": -0.26635095477104187,
                "offset": -128,
                "scale": 0.0020808668341487646
            },
            {
                "bitwidth": 8,
                "dtype": "int",
                "is_symmetric": "True",
                "max": 0.24423475563526154,
                "min": -0.24615786969661713,
                "offset": -128,
                "scale": 0.0019231083570048213
            },
            {
                "bitwidth": 8,
                "dtype": "int",
                "is_symmetric": "True",
                "max": 0.1454397290945053,
                "min": -0.14658492803573608,
                "offset": -128,
                "scale": 0.0011451947502791882
            },
            {
                "bitwidth": 8,
                "dtype": "int",
                "is_symmetric": "True",
                "max": 0.1866643875837326,
                "min": -0.18813417851924896,
                "offset": -128,
                "scale": 0.0014697982696816325
            },
            {
                "bitwidth": 8,
                "dtype": "int",
                "is_symmetric": "True",
                "max": 0.1072297990322113,
                "min": -0.1080741286277771,
                "offset": -128,
                "scale": 0.0008443291299045086
            },
            {
                "bitwidth": 8,
                "dtype": "int",
                "is_symmetric": "True",
                "max": 0.10500598698854446,
                "min": -0.10583280771970749,
                "offset": -128,
                "scale": 0.0008268188103102148
            },
            {
                "bitwidth": 8,
                "dtype": "int",
                "is_symmetric": "True",
                "max": 0.1761186420917511,
                "min": -0.17750540375709534,
                "offset": -128,
                "scale": 0.0013867609668523073
            },
            {
                "bitwidth": 8,
                "dtype": "int",
                "is_symmetric": "True",
                "max": 0.19454577565193176,
                "min": -0.1960776299238205,
                "offset": -128,
                "scale": 0.0015318564837798476
            },
            {
                "bitwidth": 8,
                "dtype": "int",
                "is_symmetric": "True",
                "max": 0.22521966695785522,
                "min": -0.22699305415153503,
                "offset": -128,
                "scale": 0.0017733832355588675
            },
            {
                "bitwidth": 8,
                "dtype": "int",
                "is_symmetric": "True",
                "max": 0.14784370362758636,
                "min": -0.14900782704353333,
                "offset": -128,
                "scale": 0.001164123648777604
            },
            {
                "bitwidth": 8,
                "dtype": "int",
                "is_symmetric": "True",
                "max": 0.28141874074935913,
                "min": -0.28363463282585144,
                "offset": -128,
                "scale": 0.0022158955689519644
            },
            {
                "bitwidth": 8,
                "dtype": "int",
                "is_symmetric": "True",
                "max": 0.12413103878498077,
                "min": -0.12510845065116882,
                "offset": -128,
                "scale": 0.0009774097707122564
            },
            {
                "bitwidth": 8,
                "dtype": "int",
                "is_symmetric": "True",
                "max": 0.1776067167520523,
                "min": -0.1790051907300949,
                "offset": -128,
                "scale": 0.0013984780525788665
            },
            {
                "bitwidth": 8,
                "dtype": "int",
                "is_symmetric": "True",
                "max": 0.1454424113035202,
                "min": -0.14658762514591217,
                "offset": -128,
                "scale": 0.0011452158214524388
            },
            {
                "bitwidth": 8,
                "dtype": "int",
                "is_symmetric": "True",
                "max": 0.1897829920053482,
                "min": -0.19127734005451202,
                "offset": -128,
                "scale": 0.0014943542191758752
            },
            {
                "bitwidth": 8,
                "dtype": "int",
                "is_symmetric": "True",
                "max": 0.15945692360401154,
                "min": -0.16071249544620514,
                "offset": -128,
                "scale": 0.0012555663706734776
            },
            {
                "bitwidth": 8,
                "dtype": "int",
                "is_symmetric": "True",
                "max": 0.11254305392503738,
                "min": -0.11342921853065491,
                "offset": -128,
                "scale": 0.0008861657697707415
            },
            {
                "bitwidth": 8,
                "dtype": "int",
                "is_symmetric": "True",
                "max": 0.1600177139043808,
                "min": -0.16127769649028778,
                "offset": -128,
                "scale": 0.0012599820038303733
            },
            {
                "bitwidth": 8,
                "dtype": "int",
                "is_symmetric": "True",
                "max": 0.22268904745578766,
                "min": -0.2244425117969513,
                "offset": -128,
                "scale": 0.001753457123413682
            },
            {
                "bitwidth": 8,
                "dtype": "int",
                "is_symmetric": "True",
                "max": 0.19639432430267334,
                "min": -0.19794073700904846,
                "offset": -128,
                "scale": 0.0015464120078831911
            },
            {
                "bitwidth": 8,
                "dtype": "int",
                "is_symmetric": "True",
                "max": 0.1664448380470276,
                "min": -0.16775542497634888,
                "offset": -128,
                "scale": 0.0013105892576277256
            }
        ],
        "model.encoder.layers.13.conv.weight": [
            {
                "bitwidth": 8,
                "dtype": "int",
                "is_symmetric": "True",
                "max": 0.18615712225437164,
                "min": -0.18762291967868805,
                "offset": -128,
                "scale": 0.0014658040599897504
            },
            {
                "bitwidth": 8,
                "dtype": "int",
                "is_symmetric": "True",
                "max": 0.2650466859340668,
                "min": -0.2671336531639099,
                "offset": -128,
                "scale": 0.002086981665343046
            },
            {
                "bitwidth": 8,
                "dtype": "int",
                "is_symmetric": "True",
                "max": 0.1794152855873108,
                "min": -0.1808280050754547,
                "offset": -128,
                "scale": 0.00141271878965199
            },
            {
                "bitwidth": 8,
                "dtype": "int",
                "is_symmetric": "True",
                "max": 0.25133198499679565,
                "min": -0.2533109784126282,
                "offset": -128,
                "scale": 0.0019789920188486576
            },
            {
                "bitwidth": 8,
                "dtype": "int",
                "is_symmetric": "True",
                "max": 0.162312313914299,
                "min": -0.16359035670757294,
                "offset": -128,
                "scale": 0.0012780496617779136
            },
            {
                "bitwidth": 8,
                "dtype": "int",
                "is_symmetric": "True",
                "max": 0.14281527698040009,
                "min": -0.143939808011055,
                "offset": -128,
                "scale": 0.0011245297500863671
            },
            {
                "bitwidth": 8,
                "dtype": "int",
                "is_symmetric": "True",
                "max": 0.17274074256420135,
                "min": -0.17410090565681458,
                "offset": -128,
                "scale": 0.0013601633254438639
            },
            {
                "bitwidth": 8,
                "dtype": "int",
                "is_symmetric": "True",
                "max": 0.20923997461795807,
                "min": -0.21088753640651703,
                "offset": -128,
                "scale": 0.0016475588781759143
            },
            {
                "bitwidth": 8,
                "dtype": "int",
                "is_symmetric": "True",
                "max": 0.13886305689811707,
                "min": -0.13995645940303802,
                "offset": -128,
                "scale": 0.0010934098390862346
            },
            {
                "bitwidth": 8,
                "dtype": "int",
                "is_symmetric": "True",
                "max": 0.12700840830802917,
                "min": -0.12800846993923187,
                "offset": -128,
                "scale": 0.001000066171400249
            },
            {
                "bitwidth": 8,
                "dtype": "int",
                "is_symmetric": "True",
                "max": 0.1576400101184845,
                "min": -0.158881276845932,
                "offset": -128,
                "scale": 0.0012412599753588438
            },
            {
                "bitwidth": 8,
                "dtype": "int",
                "is_symmetric": "True",
                "max": 0.14761385321617126,
                "min": -0.14877617359161377,
                "offset": -128,
                "scale": 0.0011623138561844826
            },
            {
                "bitwidth": 8,
                "dtype": "int",
                "is_symmetric": "True",
                "max": 0.19997180998325348,
                "min": -0.20154638588428497,
                "offset": -128,
                "scale": 0.0015745811397209764
            },
            {
                "bitwidth": 8,
                "dtype": "int",
                "is_symmetric": "True",
                "max": 0.17806166410446167,
                "min": -0.179463729262352,
                "offset": -128,
                "scale": 0.001402060384862125
            },
            {
                "bitwidth": 8,
                "dtype": "int",
                "is_symmetric": "True",
                "max": 0.18314695358276367,
                "min": -0.18458905816078186,
                "offset": -128,
                "scale": 0.0014421020168811083
            },
            {
                "bitwidth": 8,
                "dtype": "int",
                "is_symmetric": "True",
                "max": 0.14200858771800995,
                "min": -0.14312677085399628,
                "offset": -128,
                "scale": 0.001118177897296846
            },
            {
                "bitwidth": 8,
                "dtype": "int",
                "is_symmetric": "True",
                "max": 0.11566217988729477,
                "min": -0.11657290905714035,
                "offset": -128,
                "scale": 0.000910725852008909
            },
            {
                "bitwidth": 8,
                "dtype": "int",
                "is_symmetric": "True",
                "max": 0.22037146985530853,
                "min": -0.2221066802740097,
                "offset": -128,
                "scale": 0.0017352084396407008
            },
            {
                "bitwidth": 8,
                "dtype": "int",
                "is_symmetric": "True",
                "max": 0.1660594791173935,
                "min": -0.16736704111099243,
                "offset": -128,
                "scale": 0.0013075550086796284
            },
            {
                "bitwidth": 8,
                "dtype": "int",
                "is_symmetric": "True",
                "max": 0.16228289902210236,
                "min": -0.16356071829795837,
                "offset": -128,
                "scale": 0.0012778181117027998
            },
            {
                "bitwidth": 8,
                "dtype": "int",
                "is_symmetric": "True",
                "max": 0.14362117648124695,
                "min": -0.14475205540657043,
                "offset": -128,
                "scale": 0.0011308754328638315
            },
            {
                "bitwidth": 8,
                "dtype": "int",
                "is_symmetric": "True",
                "max": 0.19279660284519196,
                "min": -0.19431468844413757,
                "offset": -128,
                "scale": 0.0015180835034698248
            },
            {
                "bitwidth": 8,
                "dtype": "int",
                "is_symmetric": "True",
                "max": 0.17459681630134583,
                "min": -0.1759715974330902,
                "offset": -128,
                "scale": 0.0013747781049460173
            },
            {
                "bitwidth": 8,
                "dtype": "int",
                "is_symmetric": "True",
                "max": 0.18312256038188934,
                "min": -0.184564471244812,
                "offset": -128,
                "scale": 0.0014419099316000938
            },
            {
                "bitwidth": 8,
                "dtype": "int",
                "is_symmetric": "True",
                "max": 0.20808038115501404,
                "min": -0.20971880853176117,
                "offset": -128,
                "scale": 0.0016384281916543841
            },
            {
                "bitwidth": 8,
                "dtype": "int",
                "is_symmetric": "True",
                "max": 0.2100587785243988,
                "min": -0.2117127776145935,
                "offset": -128,
                "scale": 0.0016540060751140118
            },
            {
                "bitwidth": 8,
                "dtype": "int",
                "is_symmetric": "True",
                "max": 0.14828801155090332,
                "min": -0.14945563673973083,
                "offset": -128,
                "scale": 0.0011676221620291471
            },
            {
                "bitwidth": 8,
                "dtype": "int",
                "is_symmetric": "True",
                "max": 0.17044058442115784,
                "min": -0.17178264260292053,
                "offset": -128,
                "scale": 0.0013420518953353167
            },
            {
                "bitwidth": 8,
                "dtype": "int",
                "is_symmetric": "True",
                "max": 0.17213967442512512,
                "min": -0.1734950989484787,
                "offset": -128,
                "scale": 0.0013554304605349898
            },
            {
                "bitwidth": 8,
                "dtype": "int",
                "is_symmetric": "True",
                "max": 0.15445637702941895,
                "min": -0.1556725651025772,
                "offset": -128,
                "scale": 0.0012161919148638844
            },
            {
                "bitwidth": 8,
                "dtype": "int",
                "is_symmetric": "True",
                "max": 0.1454394906759262,
                "min": -0.14658468961715698,
                "offset": -128,
                "scale": 0.001145192887634039
            },
            {
                "bitwidth": 8,
                "dtype": "int",
                "is_symmetric": "True",
                "max": 0.1804630011320114,
                "min": -0.18188397586345673,
                "offset": -128,
                "scale": 0.0014209685614332557
            }
        ],
        "model.encoder.layers.14.conv.weight": [
            {
                "bitwidth": 8,
                "dtype": "int",
                "is_symmetric": "True",
                "max": 0.31084612011909485,
                "min": -0.3132937252521515,
                "offset": -128,
                "scale": 0.0024476072285324335
            },
            {
                "bitwidth": 8,
                "dtype": "int",
                "is_symmetric": "True",
                "max": 0.33351096510887146,
                "min": -0.3361370265483856,
                "offset": -128,
                "scale": 0.0026260705199092627
            },
            {
                "bitwidth": 8,
                "dtype": "int",
                "is_symmetric": "True",
                "max": 0.25131839513778687,
                "min": -0.25329726934432983,
                "offset": -128,
                "scale": 0.001978884916752577
            },
            {
                "bitwidth": 8,
                "dtype": "int",
                "is_symmetric": "True",
                "max": 0.23785869777202606,
                "min": -0.2397315949201584,
                "offset": -128,
                "scale": 0.0018729030853137374
            },
            {
                "bitwidth": 8,
                "dtype": "int",
                "is_symmetric": "True",
                "max": 0.34559565782546997,
                "min": -0.34831687808036804,
                "offset": -128,
                "scale": 0.0027212256100028753
            },
            {
                "bitwidth": 8,
                "dtype": "int",
                "is_symmetric": "True",
                "max": 0.2695993185043335,
                "min": -0.27172213792800903,
                "offset": -128,
                "scale": 0.0021228292025625706
            },
            {
                "bitwidth": 8,
                "dtype": "int",
                "is_symmetric": "True",
                "max": 0.25666436553001404,
                "min": -0.2586853504180908,
                "offset": -128,
                "scale": 0.0020209793001413345
            },
            {
                "bitwidth": 8,
                "dtype": "int",
                "is_symmetric": "True",
                "max": 0.2603547275066376,
                "min": -0.26240476965904236,
                "offset": -128,
                "scale": 0.0020500372629612684
            },
            {
                "bitwidth": 8,
                "dtype": "int",
                "is_symmetric": "True",
                "max": 0.2493666559457779,
                "min": -0.25133016705513,
                "offset": -128,
                "scale": 0.001963516930118203
            },
            {
                "bitwidth": 8,
                "dtype": "int",
                "is_symmetric": "True",
                "max": 0.24656741321086884,
                "min": -0.24850888550281525,
                "offset": -128,
                "scale": 0.0019414756679907441
            },
            {
                "bitwidth": 8,
                "dtype": "int",
                "is_symmetric": "True",
                "max": 0.23916247487068176,
                "min": -0.24104563891887665,
                "offset": -128,
                "scale": 0.0018831690540537238
            },
            {
                "bitwidth": 8,
                "dtype": "int",
                "is_symmetric": "True",
                "max": 0.25590962171554565,
                "min": -0.2579246461391449,
                "offset": -128,
                "scale": 0.0020150362979620695
            },
            {
                "bitwidth": 8,
                "dtype": "int",
                "is_symmetric": "True",
                "max": 0.2893306612968445,
                "min": -0.29160887002944946,
                "offset": -128,
                "scale": 0.002278194297105074
            },
            {
                "bitwidth": 8,
                "dtype": "int",
                "is_symmetric": "True",
                "max": 0.3069303035736084,
                "min": -0.3093470633029938,
                "offset": -128,
                "scale": 0.002416773932054639
            },
            {
                "bitwidth": 8,
                "dtype": "int",
                "is_symmetric": "True",
                "max": 0.23611605167388916,
                "min": -0.23797523975372314,
                "offset": -128,
                "scale": 0.001859181560575962
            },
            {
                "bitwidth": 8,
                "dtype": "int",
                "is_symmetric": "True",
                "max": 0.25490501523017883,
                "min": -0.25691214203834534,
                "offset": -128,
                "scale": 0.002007126109674573
            },
            {
                "bitwidth": 8,
                "dtype": "int",
                "is_symmetric": "True",
                "max": 0.3212255537509918,
                "min": -0.3237548768520355,
                "offset": -128,
                "scale": 0.0025293349754065275
            },
            {
                "bitwidth": 8,
                "dtype": "int",
                "is_symmetric": "True",
                "max": 0.29278242588043213,
                "min": -0.2950878143310547,
                "offset": -128,
                "scale": 0.0023053735494613647
            },
            {
                "bitwidth": 8,
                "dtype": "int",
                "is_symmetric": "True",
                "max": 0.2065679281949997,
                "min": -0.20819444954395294,
                "offset": -128,
                "scale": 0.0016265191370621324
            },
            {
                "bitwidth": 8,
                "dtype": "int",
                "is_symmetric": "True",
                "max": 0.21355634927749634,
                "min": -0.21523790061473846,
                "offset": -128,
                "scale": 0.0016815460985526443
            },
            {
                "bitwidth": 8,
                "dtype": "int",
                "is_symmetric": "True",
                "max": 0.2737065255641937,
                "min": -0.2758616805076599,
                "offset": -128,
                "scale": 0.002155169378966093
            },
            {
                "bitwidth": 8,
                "dtype": "int",
                "is_symmetric": "True",
                "max": 0.20079602301120758,
                "min": -0.2023770958185196,
                "offset": -128,
                "scale": 0.0015810710610821843
            },
            {
                "bitwidth": 8,
                "dtype": "int",
                "is_symmetric": "True",
                "max": 0.3264714181423187,
                "min": -0.3290420472621918,
                "offset": -128,
                "scale": 0.0025706409942358732
            },
            {
                "bitwidth": 8,
                "dtype": "int",
                "is_symmetric": "True",
                "max": 0.2519993185997009,
                "min": -0.2539835572242737,
                "offset": -128,
                "scale": 0.001984246540814638
            },
            {
                "bitwidth": 8,
                "dtype": "int",
                "is_symmetric": "True",
                "max": 0.30758416652679443,
                "min": -0.3100060820579529,
                "offset": -128,
                "scale": 0.002421922516077757
            },
            {
                "bitwidth": 8,
                "dtype": "int",
                "is_symmetric": "True",
                "max": 0.2685104012489319,
                "min": -0.27062466740608215,
                "offset": -128,
                "scale": 0.002114255214110017
            },
            {
                "bitwidth": 8,
                "dtype": "int",
                "is_symmetric": "True",
                "max": 0.31220173835754395,
                "min": -0.3146600127220154,
                "offset": -128,
                "scale": 0.002458281349390745
            },
            {
                "bitwidth": 8,
                "dtype": "int",
                "is_symmetric": "True",
                "max": 0.25672775506973267,
                "min": -0.25874924659729004,
                "offset": -128,
                "scale": 0.0020214784890413284
            },
            {
                "bitwidth": 8,
                "dtype": "int",
                "is_symmetric": "True",
                "max": 0.22838713228702545,
                "min": -0.23018544912338257,
                "offset": -128,
                "scale": 0.0017983238212764263
            },
            {
                "bitwidth": 8,
                "dtype": "int",
                "is_symmetric": "True",
                "max": 0.34076637029647827,
                "min": -0.34344956278800964,
                "offset": -128,
                "scale": 0.0026831997092813253
            },
            {
                "bitwidth": 8,
                "dtype": "int",
                "is_symmetric": "True",
                "max": 0.2638391852378845,
                "min": -0.265916645526886,
                "offset": -128,
                "scale": 0.0020774737931787968
            },
            {
                "bitwidth": 8,
                "dtype": "int",
                "is_symmetric": "True",
                "max": 0.21648265421390533,
                "min": -0.21818724274635315,
                "offset": -128,
                "scale": 0.001704587833955884
            }
        ],
        "model.encoder.layers.15.conv.weight": [
            {
                "bitwidth": 8,
                "dtype": "int",
                "is_symmetric": "True",
                "max": 0.15196022391319275,
                "min": -0.15315675735473633,
                "offset": -128,
                "scale": 0.0011965371668338776
            },
            {
                "bitwidth": 8,
                "dtype": "int",
                "is_symmetric": "True",
                "max": 0.13165538012981415,
                "min": -0.13269203901290894,
                "offset": -128,
                "scale": 0.001036656554788351
            },
            {
                "bitwidth": 8,
                "dtype": "int",
                "is_symmetric": "True",
                "max": 0.24895575642585754,
                "min": -0.2509160339832306,
                "offset": -128,
                "scale": 0.001960281515493989
            },
            {
                "bitwidth": 8,
                "dtype": "int",
                "is_symmetric": "True",
                "max": 0.21113817393779755,
                "min": -0.21280068159103394,
                "offset": -128,
                "scale": 0.0016625053249299526
            },
            {
                "bitwidth": 8,
                "dtype": "int",
                "is_symmetric": "True",
                "max": 0.1318964809179306,
                "min": -0.132935032248497,
                "offset": -128,
                "scale": 0.0010385549394413829
            },
            {
                "bitwidth": 8,
                "dtype": "int",
                "is_symmetric": "True",
                "max": 0.15123414993286133,
                "min": -0.15242497622966766,
                "offset": -128,
                "scale": 0.0011908201267942786
            },
            {
                "bitwidth": 8,
                "dtype": "int",
                "is_symmetric": "True",
                "max": 0.20609578490257263,
                "min": -0.20771858096122742,
                "offset": -128,
                "scale": 0.0016228014137595892
            },
            {
                "bitwidth": 8,
                "dtype": "int",
                "is_symmetric": "True",
                "max": 0.15545423328876495,
                "min": -0.15667828917503357,
                "offset": -128,
                "scale": 0.0012240491341799498
            },
            {
                "bitwidth": 8,
                "dtype": "int",
                "is_symmetric": "True",
                "max": 0.1585337519645691,
                "min": -0.1597820520401001,
                "offset": -128,
                "scale": 0.001248297281563282
            },
            {
                "bitwidth": 8,
                "dtype": "int",
                "is_symmetric": "True",
                "max": 0.14703917503356934,
                "min": -0.1481969654560089,
                "offset": -128,
                "scale": 0.0011577887926250696
            },
            {
                "bitwidth": 8,
                "dtype": "int",
                "is_symmetric": "True",
                "max": 0.13384152948856354,
                "min": -0.13489539921283722,
                "offset": -128,
                "scale": 0.0010538703063502908
            },
            {
                "bitwidth": 8,
                "dtype": "int",
                "is_symmetric": "True",
                "max": 0.2407694011926651,
                "min": -0.24266521632671356,
                "offset": -128,
                "scale": 0.0018958220025524497
            },
            {
                "bitwidth": 8,
                "dtype": "int",
                "is_symmetric": "True",
                "max": 0.2393902838230133,
                "min": -0.24127525091171265,
                "offset": -128,
                "scale": 0.001884962897747755
            },
            {
                "bitwidth": 8,
                "dtype": "int",
                "is_symmetric": "True",
                "max": 0.2032172530889511,
                "min": -0.20481738448143005,
                "offset": -128,
                "scale": 0.0016001358162611723
            },
            {
                "bitwidth": 8,
                "dtype": "int",
                "is_symmetric": "True",
                "max": 0.1428568810224533,
                "min": -0.14398173987865448,
                "offset": -128,
                "scale": 0.0011248573428019881
            },
            {
                "bitwidth": 8,
                "dtype": "int",
                "is_symmetric": "True",
                "max": 0.14118321239948273,
                "min": -0.14229489862918854,
                "offset": -128,
                "scale": 0.0011116788955405354
            },
            {
                "bitwidth": 8,
                "dtype": "int",
                "is_symmetric": "True",
                "max": 0.18874254822731018,
                "min": -0.19022871553897858,
                "offset": -128,
                "scale": 0.0014861618401482701
            },
            {
                "bitwidth": 8,
                "dtype": "int",
                "is_symmetric": "True",
                "max": 0.23648495972156525,
                "min": -0.23834703862667084,
                "offset": -128,
                "scale": 0.001862086239270866
            },
            {
                "bitwidth": 8,
                "dtype": "int",
                "is_symmetric": "True",
                "max": 0.18504256010055542,
                "min": -0.18649959564208984,
                "offset": -128,
                "scale": 0.001457028090953827
            },
            {
                "bitwidth": 8,
                "dtype": "int",
                "is_symmetric": "True",
                "max": 0.18213340640068054,
                "min": -0.18356752395629883,
                "offset": -128,
                "scale": 0.0014341212809085846
            },
            {
                "bitwidth": 8,
                "dtype": "int",
                "is_symmetric": "True",
                "max": 0.19063614308834076,
                "min": -0.192137211561203,
                "offset": -128,
                "scale": 0.0015010719653218985
            },
            {
                "bitwidth": 8,
                "dtype": "int",
                "is_symmetric": "True",
                "max": 0.14657655358314514,
                "min": -0.14773069322109222,
                "offset": -128,
                "scale": 0.001154146040789783
            },
            {
                "bitwidth": 8,
                "dtype": "int",
                "is_symmetric": "True",
                "max": 0.25027355551719666,
                "min": -0.2522442042827606,
                "offset": -128,
                "scale": 0.0019706578459590673
            },
            {
                "bitwidth": 8,
                "dtype": "int",
                "is_symmetric": "True",
                "max": 0.18540894985198975,
                "min": -0.18686886131763458,
                "offset": -128,
                "scale": 0.0014599129790440202
            },
            {
                "bitwidth": 8,
                "dtype": "int",
                "is_symmetric": "True",
                "max": 0.14771650731563568,
                "min": -0.14887963235378265,
                "offset": -128,
                "scale": 0.001163122127763927
            },
            {
                "bitwidth": 8,
                "dtype": "int",
                "is_symmetric": "True",
                "max": 0.1667468249797821,
                "min": -0.1680597960948944,
                "offset": -128,
                "scale": 0.0013129671569913626
            },
            {
                "bitwidth": 8,
                "dtype": "int",
                "is_symmetric": "True",
                "max": 0.19990041851997375,
                "min": -0.20147444307804108,
                "offset": -128,
                "scale": 0.001574019086547196
            },
            {
                "bitwidth": 8,
                "dtype": "int",
                "is_symmetric": "True",
                "max": 0.1363770067691803,
                "min": -0.13745084404945374,
                "offset": -128,
                "scale": 0.0010738347191363573
            },
            {
                "bitwidth": 8,
                "dtype": "int",
                "is_symmetric": "True",
                "max": 0.15088093280792236,
                "min": -0.15206897258758545,
                "offset": -128,
                "scale": 0.0011880388483405113
            },
            {
                "bitwidth": 8,
                "dtype": "int",
                "is_symmetric": "True",
                "max": 0.12418175488710403,
                "min": -0.12515956163406372,
                "offset": -128,
                "scale": 0.0009778090752661228
            },
            {
                "bitwidth": 8,
                "dtype": "int",
                "is_symmetric": "True",
                "max": 0.23431073129177094,
                "min": -0.236155703663826,
                "offset": -128,
                "scale": 0.0018449664348736405
            },
            {
                "bitwidth": 8,
                "dtype": "int",
                "is_symmetric": "True",
                "max": 0.13918517529964447,
                "min": -0.14028112590312958,
                "offset": -128,
                "scale": 0.0010959462961181998
            }
        ],
        "model.encoder.layers.16.conv.weight": [
            {
                "bitwidth": 8,
                "dtype": "int",
                "is_symmetric": "True",
                "max": 0.34206101298332214,
                "min": -0.3447543978691101,
                "offset": -128,
                "scale": 0.0026933937333524227
            },
            {
                "bitwidth": 8,
                "dtype": "int",
                "is_symmetric": "True",
                "max": 0.38357582688331604,
                "min": -0.38659611344337463,
                "offset": -128,
                "scale": 0.0030202821362763643
            },
            {
                "bitwidth": 8,
                "dtype": "int",
                "is_symmetric": "True",
                "max": 0.2201274037361145,
                "min": -0.22186069190502167,
                "offset": -128,
                "scale": 0.0017332866555079818
            },
            {
                "bitwidth": 8,
                "dtype": "int",
                "is_symmetric": "True",
                "max": 0.31346264481544495,
                "min": -0.3159308433532715,
                "offset": -128,
                "scale": 0.0024682097136974335
            },
            {
                "bitwidth": 8,
                "dtype": "int",
                "is_symmetric": "True",
                "max": 0.36164504289627075,
                "min": -0.36449265480041504,
                "offset": -128,
                "scale": 0.0028475988656282425
            },
            {
                "bitwidth": 8,
                "dtype": "int",
                "is_symmetric": "True",
                "max": 0.24852433800697327,
                "min": -0.2504812180995941,
                "offset": -128,
                "scale": 0.001956884516403079
            },
            {
                "bitwidth": 8,
                "dtype": "int",
                "is_symmetric": "True",
                "max": 0.2602044939994812,
                "min": -0.2622533440589905,
                "offset": -128,
                "scale": 0.002048854250460863
            },
            {
                "bitwidth": 8,
                "dtype": "int",
                "is_symmetric": "True",
                "max": 0.2646368443965912,
                "min": -0.26672059297561646,
                "offset": -128,
                "scale": 0.0020837546326220036
            },
            {
                "bitwidth": 8,
                "dtype": "int",
                "is_symmetric": "True",
                "max": 0.2616707384586334,
                "min": -0.2637311518192291,
                "offset": -128,
                "scale": 0.0020603996235877275
            },
            {
                "bitwidth": 8,
                "dtype": "int",
                "is_symmetric": "True",
                "max": 0.3112033009529114,
                "min": -0.31365370750427246,
                "offset": -128,
                "scale": 0.0024504195898771286
            },
            {
                "bitwidth": 8,
                "dtype": "int",
                "is_symmetric": "True",
                "max": 0.31078216433525085,
                "min": -0.3132292628288269,
