{
    "activation_encodings": [
        {
            "bw": 8,
            "dtype": "INT",
            "enc_type": "PER_TENSOR",
            "is_sym": false,
            "name": "/model/encoder/layers/layers.0/conv/Conv_output_0",
            "offset": [
                -121
            ],
            "scale": [
                0.15059708058834076
            ]
        },
        {
            "bw": 8,
            "dtype": "INT",
            "enc_type": "PER_TENSOR",
            "is_sym": false,
            "name": "/model/encoder/layers/layers.1/conv/Conv_output_0",
            "offset": [
                -132
            ],
            "scale": [
                0.12472753971815109
            ]
        },
        {
            "bw": 8,
            "dtype": "INT",
            "enc_type": "PER_TENSOR",
            "is_sym": false,
            "name": "/model/encoder/layers/layers.2/conv/Conv_output_0",
            "offset": [
                -143
            ],
            "scale": [
                0.1202579066157341
            ]
        },
        {
            "bw": 8,
            "dtype": "INT",
            "enc_type": "PER_TENSOR",
            "is_sym": false,
            "name": "/model/encoder/layers/layers.3/conv/Conv_output_0",
            "offset": [
                -131
            ],
            "scale": [
                0.09101192653179169
            ]
        },
        {
            "bw": 8,
            "dtype": "INT",
            "enc_type": "PER_TENSOR",
            "is_sym": false,
            "name": "/model/encoder/layers/layers.4/conv/Conv_output_0",
            "offset": [
                -161
            ],
            "scale": [
                0.08620581775903702
            ]
        },
        {
            "bw": 8,
            "dtype": "INT",
            "enc_type": "PER_TENSOR",
            "is_sym": false,
            "name": "/model/encoder/layers/layers.5/conv/Conv_output_0",
            "offset": [
                -129
            ],
            "scale": [
                0.08145582675933838
            ]
        },
        {
            "bw": 8,
            "dtype": "INT",
            "enc_type": "PER_TENSOR",
            "is_sym": false,
            "name": "/model/encoder/layers/layers.6/conv/Conv_output_0",
            "offset": [
                -135
            ],
            "scale": [
                0.06797458231449127
            ]
        },
        {
            "bw": 8,
            "dtype": "INT",
            "enc_type": "PER_TENSOR",
            "is_sym": false,
            "name": "/model/encoder/layers/layers.7/conv/Conv_output_0",
            "offset": [
                -123
            ],
            "scale": [
                0.08968956768512726
            ]
        },
        {
            "bw": 8,
            "dtype": "INT",
            "enc_type": "PER_TENSOR",
            "is_sym": false,
            "name": "/model/encoder/layers/layers.8/conv/Conv_output_0",
            "offset": [
                -120
            ],
            "scale": [
                0.08663492649793625
            ]
        },
        {
            "bw": 8,
            "dtype": "INT",
            "enc_type": "PER_TENSOR",
            "is_sym": false,
            "name": "/model/encoder/layers/layers.9/conv/Conv_output_0",
            "offset": [
                -104
            ],
            "scale": [
                0.08398064225912094
            ]
        },
        {
            "bw": 8,
            "dtype": "INT",
            "enc_type": "PER_TENSOR",
            "is_sym": false,
            "name": "/model/encoder/layers/layers.10/conv/Conv_output_0",
            "offset": [
                -134
            ],
            "scale": [
                0.07350539416074753
            ]
        },
        {
            "bw": 8,
            "dtype": "INT",
            "enc_type": "PER_TENSOR",
            "is_sym": false,
            "name": "/model/encoder/layers/layers.11/conv/Conv_output_0",
            "offset": [
                -130
            ],
            "scale": [
                0.06445987522602081
            ]
        },
        {
            "bw": 8,
            "dtype": "INT",
            "enc_type": "PER_TENSOR",
            "is_sym": false,
            "name": "/model/encoder/layers/layers.12/conv/Conv_output_0",
            "offset": [
                -137
            ],
            "scale": [
                0.06985792517662048
            ]
        },
        {
            "bw": 8,
            "dtype": "INT",
            "enc_type": "PER_TENSOR",
            "is_sym": false,
            "name": "/model/encoder/layers/layers.13/conv/Conv_output_0",
            "offset": [
                -137
            ],
            "scale": [
                0.0631670206785202
            ]
        },
        {
            "bw": 8,
            "dtype": "INT",
            "enc_type": "PER_TENSOR",
            "is_sym": false,
            "name": "/model/encoder/layers/layers.14/conv/Conv_output_0",
            "offset": [
                -131
            ],
            "scale": [
                0.064844511449337
            ]
        },
        {
            "bw": 8,
            "dtype": "INT",
            "enc_type": "PER_TENSOR",
            "is_sym": false,
            "name": "/model/encoder/layers/layers.15/conv/Conv_output_0",
            "offset": [
                -126
            ],
            "scale": [
                0.05977461859583855
            ]
        },
        {
            "bw": 8,
            "dtype": "INT",
            "enc_type": "PER_TENSOR",
            "is_sym": false,
            "name": "/model/encoder/layers/layers.16/conv/Conv_output_0",
            "offset": [
                -164
            ],
            "scale": [
                0.06693515926599503
            ]
        },
        {
            "bw": 8,
            "dtype": "INT",
            "enc_type": "PER_TENSOR",
            "is_sym": false,
            "name": "/model/encoder/layers/layers.17/conv/Conv_output_0",
            "offset": [
                -121
            ],
            "scale": [
                0.11410166323184967
            ]
        },
        {
            "bw": 8,
            "dtype": "INT",
            "enc_type": "PER_TENSOR",
            "is_sym": false,
            "name": "/model/volume_gen/Concat_output_0",
            "offset": [
                -121
            ],
            "scale": [
                0.11410034447908401
            ]
        },
        {
            "bw": 8,
            "dtype": "INT",
            "enc_type": "PER_TENSOR",
            "is_sym": false,
            "name": "/model/volume_gen/reference_mapping/linear1/Conv_output_0",
            "offset": [
                -122
            ],
            "scale": [
                0.07343760132789612
            ]
        },
        {
            "bw": 8,
            "dtype": "INT",
            "enc_type": "PER_TENSOR",
            "is_sym": false,
            "name": "/model/volume_gen/reference_mapping/relu/Relu_output_0",
            "offset": [
                0
            ],
            "scale": [
                0.0382336787879467
            ]
        },
        {
            "bw": 8,
            "dtype": "INT",
            "enc_type": "PER_TENSOR",
            "is_sym": false,
            "name": "/model/volume_gen/reference_mapping/linear2/Conv_output_0",
            "offset": [
                -144
            ],
            "scale": [
                0.027160005643963814
            ]
        },
        {
            "bw": 8,
            "dtype": "INT",
            "enc_type": "PER_TENSOR",
            "is_sym": false,
            "name": "/model/volume_gen/Concat_1_output_0",
            "offset": [
                -123
            ],
            "scale": [
                0.11060594767332077
            ]
        },
        {
            "bw": 8,
            "dtype": "INT",
            "enc_type": "PER_TENSOR",
            "is_sym": false,
            "name": "/model/volume_gen/target_mapping/linear1/Conv_output_0",
            "offset": [
                -117
            ],
            "scale": [
                0.13769017159938812
            ]
        },
        {
            "bw": 8,
            "dtype": "INT",
            "enc_type": "PER_TENSOR",
            "is_sym": false,
            "name": "/model/volume_gen/target_mapping/relu/Relu_output_0",
            "offset": [
                0
            ],
            "scale": [
                0.07471191883087158
            ]
        },
        {
            "bw": 8,
            "dtype": "INT",
            "enc_type": "PER_TENSOR",
            "is_sym": false,
            "name": "/model/volume_gen/target_mapping/linear2/Conv_output_0",
            "offset": [
                -161
            ],
            "scale": [
                0.06979130953550339
            ]
        },
        {
            "bw": 8,
            "dtype": "INT",
            "enc_type": "PER_TENSOR",
            "is_sym": false,
            "name": "/model/volume_gen/target_mapping/out_act/Sigmoid_output_0",
            "offset": [
                0
            ],
            "scale": [
                0.003916109446436167
            ]
        },
        {
            "bw": 8,
            "dtype": "INT",
            "enc_type": "PER_TENSOR",
            "is_sym": false,
            "name": "/model/state_conv/conv/Conv_output_0",
            "offset": [
                -123
            ],
            "scale": [
                0.04440797492861748
            ]
        },
        {
            "bw": 8,
            "dtype": "INT",
            "enc_type": "PER_TENSOR",
            "is_sym": false,
            "name": "/model/update_block/encoder/convc1#0/convc1#0.0/end/Conv_output_0",
            "offset": [
                -154
            ],
            "scale": [
                0.11059369146823883
            ]
        },
        {
            "bw": 8,
            "dtype": "INT",
            "enc_type": "PER_TENSOR",
            "is_sym": false,
            "name": "/model/update_block/encoder/convc2#0/convc2#0.0/end/Conv_output_0",
            "offset": [
                -222
            ],
            "scale": [
                0.5765238404273987
            ]
        },
        {
            "bw": 8,
            "dtype": "INT",
            "enc_type": "PER_TENSOR",
            "is_sym": false,
            "name": "/model/Constant_21_output_0",
            "offset": [
                -25
            ],
            "scale": [
                0.06612800061702728
            ]
        },
        {
            "bw": 8,
            "dtype": "INT",
            "enc_type": "PER_TENSOR",
            "is_sym": false,
            "name": "/model/update_block/encoder/convd1#0/convd1#0.0/end/Conv_output_0",
            "offset": [
                -237
            ],
            "scale": [
                0.7548171281814575
            ]
        },
        {
            "bw": 8,
            "dtype": "INT",
            "enc_type": "PER_TENSOR",
            "is_sym": false,
            "name": "/model/update_block/encoder/convd2#0/convd2#0.0/end/Conv_output_0",
            "offset": [
                -197
            ],
            "scale": [
                0.49570930004119873
            ]
        },
        {
            "bw": 8,
            "dtype": "INT",
            "enc_type": "PER_TENSOR",
            "is_sym": false,
            "name": "/model/Transpose_3_output_0",
            "offset": [
                0
            ],
            "scale": [
                0.11282361298799515
            ]
        },
        {
            "bw": 8,
            "dtype": "INT",
            "enc_type": "PER_TENSOR",
            "is_sym": false,
            "name": "/model/update_block/encoder/conv#0/conv#0.0/end/Conv_output_0",
            "offset": [
                -165
            ],
            "scale": [
                1.2192257642745972
            ]
        },
        {
            "bw": 8,
            "dtype": "INT",
            "enc_type": "PER_TENSOR",
            "is_sym": false,
            "name": "/model/update_block/gru/Concat_output_0",
            "offset": [
                -4
            ],
            "scale": [
                0.4390241205692291
            ]
        },
        {
            "bw": 8,
            "dtype": "INT",
            "enc_type": "PER_TENSOR",
            "is_sym": false,
            "name": "/model/update_block/gru/convz#0/convz#0.0/end/Conv_output_0",
            "offset": [
                -83
            ],
            "scale": [
                1.9442214965820312
            ]
        },
        {
            "bw": 8,
            "dtype": "INT",
            "enc_type": "PER_TENSOR",
            "is_sym": false,
            "name": "/model/update_block/gru/convr#0/convr#0.0/end/Conv_output_0",
            "offset": [
                -126
            ],
            "scale": [
                2.2693350315093994
            ]
        },
        {
            "bw": 8,
            "dtype": "INT",
            "enc_type": "PER_TENSOR",
            "is_sym": false,
            "name": "/model/update_block/gru/Concat_1_output_0",
            "offset": [
                -4
            ],
            "scale": [
                0.4390241205692291
            ]
        },
        {
            "bw": 8,
            "dtype": "INT",
            "enc_type": "PER_TENSOR",
            "is_sym": false,
            "name": "/model/update_block/gru/convq#0/convq#0.0/end/Conv_output_0",
            "offset": [
                -113
            ],
            "scale": [
                3.6402721405029297
            ]
        },
        {
            "bw": 8,
            "dtype": "INT",
            "enc_type": "PER_TENSOR",
            "is_sym": false,
            "name": "/model/update_block/gru/Add_output_0",
            "offset": [
                -127
            ],
            "scale": [
                0.007843137718737125
            ]
        },
        {
            "bw": 8,
            "dtype": "INT",
            "enc_type": "PER_TENSOR",
            "is_sym": false,
            "name": "/model/update_block/depth_head/conv2#0/conv2#0.0/end/Conv_output_0",
            "offset": [
                -61
            ],
            "scale": [
                0.07626133412122726
            ]
        },
        {
            "bw": 8,
            "dtype": "INT",
            "enc_type": "PER_TENSOR",
            "is_sym": false,
            "name": "/model/update_block/depth_head/relu#0/relu#0.0/end/Relu_output_0",
            "offset": [
                0
            ],
            "scale": [
                0.03909619525074959
            ]
        },
        {
            "bw": 8,
            "dtype": "INT",
            "enc_type": "PER_TENSOR",
            "is_sym": false,
            "name": "/model/update_block/mask/mask.0/Conv_output_0",
            "offset": [
                -133
            ],
            "scale": [
                0.16190776228904724
            ]
        },
        {
            "bw": 8,
            "dtype": "INT",
            "enc_type": "PER_TENSOR",
            "is_sym": false,
            "name": "/model/update_block/mask/mask.1/Relu_output_0",
            "offset": [
                0
            ],
            "scale": [
                0.07739223539829254
            ]
        },
        {
            "bw": 8,
            "dtype": "INT",
            "enc_type": "PER_TENSOR",
            "is_sym": false,
            "name": "/model/update_block/mask/mask.2/Conv_output_0",
            "offset": [
                -177
            ],
            "scale": [
                0.5196475386619568
            ]
        }
    ],
    "excluded_layers": [],
    "param_encodings": [
        {
            "bw": 8,
            "dtype": "INT",
            "enc_type": "PER_CHANNEL",
            "is_sym": true,
            "name": "model.encoder.layers.0.conv.weight",
            "offset": [
                -128,
                -128,
                -128,
                -128,
                -128,
                -128,
                -128,
                -128,
                -128,
                -128,
                -128,
                -128,
                -128,
                -128,
                -128,
                -128,
                -128,
                -128,
                -128,
                -128,
                -128,
                -128,
                -128,
                -128,
                -128,
                -128,
                -128,
                -128,
                -128,
                -128,
                -128,
                -128
            ],
            "scale": [
                0.012946026399731636,
                0.002763295080512762,
                0.008287390694022179,
                0.004967169836163521,
                0.0025047017261385918,
                0.005270727910101414,
                0.005790769122540951,
                0.005207649432122707,
                0.005057608708739281,
                0.008884351700544357,
                0.002862724708393216,
                0.004109824076294899,
                0.005182391963899136,
                0.005327739752829075,
                0.0038952885661274195,
                0.00371222710236907,
                0.004140698816627264,
                0.005031615495681763,
                0.004192432854324579,
                0.006869875360280275,
                0.002029435709118843,
                0.002297472208738327,
                0.0029461602680385113,
                0.002463194541633129,
                0.003981417510658503,
                0.0022044822108000517,
                0.008088342845439911,
                0.0037008067592978477,
                0.002027935115620494,
                0.00666080042719841,
                0.004463267978280783,
                0.004929401446133852
            ]
        },
        {
            "bw": 8,
            "dtype": "INT",
            "enc_type": "PER_CHANNEL",
            "is_sym": true,
            "name": "model.encoder.layers.1.conv.weight",
            "offset": [
                -128,
                -128,
                -128,
                -128,
                -128,
                -128,
                -128,
                -128,
                -128,
                -128,
                -128,
                -128,
                -128,
                -128,
                -128,
                -128,
                -128,
                -128,
                -128,
                -128,
                -128,
                -128,
                -128,
                -128,
                -128,
                -128,
                -128,
                -128,
                -128,
                -128,
                -128,
                -128
            ],
            "scale": [
                0.0011561318533495069,
                0.000700485659763217,
                0.0015262671513482928,
                0.0007229259354062378,
                0.0006943695480003953,
                0.001094185863621533,
                0.000930219714064151,
                0.0009566146763972938,
                0.0010050437413156033,
                0.0010888350661844015,
                0.001239369623363018,
                0.0012738669756799936,
                0.0007695815293118358,
                0.0008116278913803399,
                0.0016621610848233104,
                0.000644612533506006,
                0.0013201028341427445,
                0.0015319365775212646,
                0.0006625703535974026,
                0.0007795914425514638,
                0.0016855067806318402,
                0.0012785032158717513,
                0.0006551884580403566,
                0.0012020472204312682,
                0.0009320809622295201,
                0.0010158533696085215,
                0.0006389167974703014,
                0.0010198341915383935,
                0.0014272347325459123,
                0.0009527229703962803,
                0.0009373248904012144,
                0.001227944390848279
            ]
        },
        {
            "bw": 8,
            "dtype": "INT",
            "enc_type": "PER_CHANNEL",
            "is_sym": true,
            "name": "model.encoder.layers.2.conv.weight",
            "offset": [
                -128,
                -128,
                -128,
                -128,
                -128,
                -128,
                -128,
                -128,
                -128,
                -128,
                -128,
                -128,
                -128,
                -128,
                -128,
                -128,
                -128,
                -128,
                -128,
                -128,
                -128,
                -128,
                -128,
                -128,
                -128,
                -128,
                -128,
                -128,
                -128,
                -128,
                -128,
                -128
            ],
            "scale": [
                0.0013561892556026578,
                0.0012790934415534139,
                0.001511413254775107,
                0.0013874194119125605,
                0.0008746451931074262,
                0.001069465302862227,
                0.001017168746329844,
                0.0010009853867813945,
                0.0008795246831141412,
                0.00113541295286268,
                0.00085532694356516,
                0.0009402296273037791,
                0.0015512380050495267,
                0.0012799045071005821,
                0.0007017362513579428,
                0.000985145685262978,
                0.000802088703494519,
                0.0008421310922130942,
                0.0010795474518090487,
                0.0010742552112787962,
                0.0005351424915716052,
                0.0010280023561790586,
                0.0013782362220808864,
                0.0007622310658916831,
                0.001345378695987165,
                0.0018423194997012615,
                0.0010751771042123437,
                0.0007772631361149251,
                0.0018644190859049559,
                0.0011721866903826594,
                0.0011658698786050081,
                0.0014151701470836997
            ]
        },
        {
            "bw": 8,
            "dtype": "INT",
            "enc_type": "PER_CHANNEL",
            "is_sym": true,
            "name": "model.encoder.layers.3.conv.weight",
            "offset": [
                -128,
                -128,
                -128,
                -128,
                -128,
                -128,
                -128,
                -128,
                -128,
                -128,
                -128,
                -128,
                -128,
                -128,
                -128,
                -128,
                -128,
                -128,
                -128,
                -128,
                -128,
                -128,
                -128,
                -128,
                -128,
                -128,
                -128,
                -128,
                -128,
                -128,
                -128,
                -128
            ],
            "scale": [
                0.0005730087868869305,
                0.0012042123125866055,
                0.0008481051190756261,
                0.0011928195599466562,
                0.0009038028074428439,
                0.0010999474907293916,
                0.0013692205538973212,
                0.0006932647083885968,
                0.001369635690934956,
                0.0010218628449365497,
                0.0012743639526888728,
                0.0008792745065875351,
                0.000727569218724966,
                0.0014827022096142173,
                0.0012465151958167553,
                0.0011123224394395947,
                0.0009984044590964913,
                0.000921229540836066,
                0.0011894091730937362,
                0.001225571963004768,
                0.0013670764164999127,
                0.0009443273884244263,
                0.0008353147422894835,
                0.001173349330201745,
                0.0016304637538269162,
                0.0008888687589205801,
                0.00114454235881567,
                0.0013890528352931142,
                0.0013290244387462735,
                0.0013705962337553501,
                0.0009113206760957837,
                0.0006715142517350614
            ]
        },
        {
            "bw": 8,
            "dtype": "INT",
            "enc_type": "PER_CHANNEL",
            "is_sym": true,
            "name": "model.encoder.layers.4.conv.weight",
            "offset": [
                -128,
                -128,
                -128,
                -128,
                -128,
                -128,
                -128,
                -128,
                -128,
                -128,
                -128,
                -128,
                -128,
                -128,
                -128,
                -128,
                -128,
                -128,
                -128,
                -128,
                -128,
                -128,
                -128,
                -128,
                -128,
                -128,
                -128,
                -128,
                -128,
                -128,
                -128,
                -128
            ],
            "scale": [
                0.0015459132846444845,
                0.0008191842935048044,
                0.0016005884390324354,
                0.0017355479067191482,
                0.0007058099727146327,
                0.00212257937528193,
                0.0014291484840214252,
                0.0012011013459414244,
                0.0008888550219126046,
                0.0010494349990040064,
                0.0012108569499105215,
                0.0006575424922630191,
                0.0010476781753823161,
                0.0011186336632817984,
                0.0009853887604549527,
                0.0007072273292578757,
                0.0008591560181230307,
                0.0010722868610173464,
                0.0011558756232261658,
                0.0009457964333705604,
                0.0007407203665934503,
                0.0017236097482964396,
                0.0008287443779408932,
                0.0006591745186597109,
                0.000697949028108269,
                0.0013367155333980918,
                0.0010932887671515346,
                0.0013503902591764927,
                0.00222178571857512,
                0.0017642851453274488,
                0.002022380707785487,
                0.000717146962415427
            ]
        },
        {
            "bw": 8,
            "dtype": "INT",
            "enc_type": "PER_CHANNEL",
            "is_sym": true,
            "name": "model.encoder.layers.5.conv.weight",
            "offset": [
                -128,
                -128,
                -128,
                -128,
                -128,
                -128,
                -128,
                -128,
                -128,
                -128,
                -128,
                -128,
                -128,
                -128,
                -128,
                -128,
                -128,
                -128,
                -128,
                -128,
                -128,
                -128,
                -128,
                -128,
                -128,
                -128,
                -128,
                -128,
                -128,
                -128,
                -128,
                -128
            ],
            "scale": [
                0.0009074012632481754,
                0.0009246042463928461,
                0.0014189197681844234,
                0.0012302545364946127,
                0.0007474548183381557,
                0.0012353440979495645,
                0.00048242206685245037,
                0.0008510426268912852,
                0.0008345597889274359,
                0.0009136461885645986,
                0.0010446836240589619,
                0.0009756239014677703,
                0.0009152428829111159,
                0.0005734469159506261,
                0.0004842763883061707,
                0.0007798731094226241,
                0.000559008214622736,
                0.0007062414078973234,
                0.0016325126634910703,
                0.0015115025453269482,
                0.0010133353061974049,
                0.0013029734836891294,
                0.0020163438748568296,
                0.0007830039248801768,
                0.0008223039912991226,
                0.0008738079341128469,
                0.001000214833766222,
                0.0012971098767593503,
                0.0013129360741004348,
                0.0007901336066424847,
                0.0013438914902508259,
                0.0006323549314402044
            ]
        },
        {
            "bw": 8,
            "dtype": "INT",
            "enc_type": "PER_CHANNEL",
            "is_sym": true,
            "name": "model.encoder.layers.6.conv.weight",
            "offset": [
                -128,
                -128,
                -128,
                -128,
                -128,
                -128,
                -128,
                -128,
                -128,
                -128,
                -128,
                -128,
                -128,
                -128,
                -128,
                -128,
                -128,
                -128,
                -128,
                -128,
                -128,
                -128,
                -128,
                -128,
                -128,
                -128,
                -128,
                -128,
                -128,
                -128,
                -128,
                -128
            ],
            "scale": [
                0.0013995020417496562,
                0.0019376829732209444,
                0.001432448043487966,
                0.0008908219169825315,
                0.0017473731422796845,
                0.0013640805846080184,
                0.0013241841224953532,
                0.0019322179723531008,
                0.0009670302970334888,
                0.001170734758488834,
                0.0010816302383318543,
                0.001019965624436736,
                0.000831583805847913,
                0.0011294977739453316,
                0.0010197153314948082,
                0.0007563921972177923,
                0.0007878057076595724,
                0.0009039570577442646,
                0.0012781595578417182,
                0.0010977553902193904,
                0.0011090864427387714,
                0.0010446134256199002,
                0.001040471252053976,
                0.0007933899178169668,
                0.001061755116097629,
                0.0017199611756950617,
                0.001467800815589726,
                0.0010406069923192263,
                0.0019283972214907408,
                0.0016787736676633358,
                0.001341953407973051,
                0.0013479678891599178
            ]
        },
        {
            "bw": 8,
            "dtype": "INT",
            "enc_type": "PER_CHANNEL",
            "is_sym": true,
            "name": "model.encoder.layers.7.conv.weight",
            "offset": [
                -128,
                -128,
                -128,
                -128,
                -128,
                -128,
                -128,
                -128,
                -128,
                -128,
                -128,
                -128,
                -128,
                -128,
                -128,
                -128,
                -128,
                -128,
                -128,
                -128,
                -128,
                -128,
                -128,
                -128,
                -128,
                -128,
                -128,
                -128,
                -128,
                -128,
                -128,
                -128
            ],
            "scale": [
                0.0012028736528009176,
                0.0004105223633814603,
                0.0008001565001904964,
                0.0006951102404855192,
                0.0008126405882649124,
                0.0009674743050709367,
                0.0009713800391182303,
                0.0009417418041266501,
                0.000996999442577362,
                0.0020533637143671513,
                0.001132547971792519,
                0.0004511785227805376,
                0.0005945475422777236,
                0.0008868302102200687,
                0.0006041840533725917,
                0.0007154150516726077,
                0.0005091982893645763,
                0.0009549628011882305,
                0.0010209539905190468,
                0.0013325333129614592,
                0.0010869716061279178,
                0.0006902758032083511,
                0.0014176202239468694,
                0.0006403118022717535,
                0.0005674355197697878,
                0.0010396036086604,
                0.0005931578343734145,
                0.0008247295045293868,
                0.0008348205592483282,
                0.0008777928305789828,
                0.0005439993110485375,
                0.0006116166478022933
            ]
        },
        {
            "bw": 8,
            "dtype": "INT",
            "enc_type": "PER_CHANNEL",
            "is_sym": true,
            "name": "model.encoder.layers.8.conv.weight",
            "offset": [
                -128,
                -128,
                -128,
                -128,
                -128,
                -128,
                -128,
                -128,
                -128,
                -128,
                -128,
                -128,
                -128,
                -128,
                -128,
                -128,
                -128,
                -128,
                -128,
                -128,
                -128,
                -128,
                -128,
                -128,
                -128,
                -128,
                -128,
                -128,
                -128,
                -128,
                -128,
                -128
            ],
            "scale": [
                0.001222838880494237,
                0.0009881927398964763,
                0.00074366683838889,
                0.0009126879158429801,
                0.0007583033875562251,
                0.0008490331238135695,
                0.0007875176961533725,
                0.0008826310513541102,
                0.0010140629019588232,
                0.0008373521850444376,
                0.0008728924440219998,
                0.0006809754413552582,
                0.0013336057309061289,
                0.0008593990351073444,
                0.0009959088638424873,
                0.0007371154497377574,
                0.0005597900017164648,
                0.0009229242568835616,
                0.0010286954930052161,
                0.0006845200550742447,
                0.0008467299630865455,
                0.0007290269713848829,
                0.0006630918360315263,
                0.0006464537000283599,
                0.0006681051454506814,
                0.0008918326930142939,
                0.0008704847423359752,
                0.00054759910563007,
                0.0007858629105612636,
                0.0013134591281414032,
                0.0009645206737332046,
                0.0006490383530035615
            ]
        },
        {
            "bw": 8,
            "dtype": "INT",
            "enc_type": "PER_CHANNEL",
            "is_sym": true,
            "name": "model.encoder.layers.9.conv.weight",
            "offset": [
                -128,
                -128,
                -128,
                -128,
                -128,
                -128,
                -128,
                -128,
                -128,
                -128,
                -128,
                -128,
                -128,
                -128,
                -128,
                -128,
                -128,
                -128,
                -128,
                -128,
                -128,
                -128,
                -128,
                -128,
                -128,
                -128,
                -128,
                -128,
                -128,
                -128,
                -128,
                -128
            ],
            "scale": [
                0.0009883739985525608,
                0.0006862899754196405,
                0.0007838679011911154,
                0.0004566611023619771,
                0.0008568904595449567,
                0.000671739224344492,
                0.0007998764049261808,
                0.00084267946658656,
                0.0017317159799858928,
                0.0006680279620923102,
                0.00044907184201292694,
                0.0006114901043474674,
                0.0007235939847305417,
                0.001144359353929758,
                0.0007869843393564224,
                0.0008071730844676495,
                0.0007819921593181789,
                0.0009092105901800096,
                0.0008973394869826734,
                0.0007732156664133072,
                0.0004671047208830714,
                0.0007276473334059119,
                0.00046818333794362843,
                0.0008215772686526179,
                0.0005320368800312281,
                0.0005499424296431243,
                0.0008092003990896046,
                0.0006664060056209564,
                0.0005074763903394341,
                0.0010638186940923333,
                0.0004263835435267538,
                0.0007138329674489796
            ]
        },
        {
            "bw": 8,
            "dtype": "INT",
            "enc_type": "PER_CHANNEL",
            "is_sym": true,
            "name": "model.encoder.layers.10.conv.weight",
            "offset": [
                -128,
                -128,
                -128,
                -128,
                -128,
                -128,
                -128,
                -128,
                -128,
                -128,
                -128,
                -128,
                -128,
                -128,
                -128,
                -128,
                -128,
                -128,
                -128,
                -128,
                -128,
                -128,
                -128,
                -128,
                -128,
                -128,
                -128,
                -128,
                -128,
                -128,
                -128,
                -128
            ],
            "scale": [
                0.0008009342127479613,
                0.0006876115221530199,
                0.0009700180380605161,
                0.0006248774589039385,
                0.000653936353046447,
                0.0006818741094321012,
                0.0005971521022729576,
                0.0011331334244459867,
                0.0004793814441654831,
                0.0008070570765994489,
                0.0009504506597295403,
                0.0009398813126608729,
                0.0005816476186737418,
                0.0007343071629293263,
                0.0006968523375689983,
                0.000586631300393492,
                0.0005578204873017967,
                0.0011744445655494928,
                0.0007541279192082584,
                0.0006759515963494778,
                0.0007644898723810911,
                0.0008991031791083515,
                0.0006714976043440402,
                0.00046050315722823143,
                0.0005819211946800351,
                0.0007197315571829677,
                0.0010050764540210366,
                0.0008817915804684162,
                0.0007335271220654249,
                0.000823225942440331,
                0.0007653373177163303,
                0.0006258657085709274
            ]
        },
        {
            "bw": 8,
            "dtype": "INT",
            "enc_type": "PER_CHANNEL",
            "is_sym": true,
            "name": "model.encoder.layers.11.conv.weight",
            "offset": [
                -128,
                -128,
                -128,
                -128,
                -128,
                -128,
                -128,
                -128,
                -128,
                -128,
                -128,
                -128,
                -128,
                -128,
                -128,
                -128,
                -128,
                -128,
                -128,
                -128,
                -128,
                -128,
                -128,
                -128,
                -128,
                -128,
                -128,
                -128,
                -128,
                -128,
                -128,
                -128
            ],
            "scale": [
                0.0012950836680829525,
                0.0012740899110212922,
                0.0014670874224975705,
                0.001352238468825817,
                0.001200020662508905,
                0.001027227845042944,
                0.0006765050929971039,
                0.0009555311989970505,
                0.0011121558491140604,
                0.0011047371663153172,
                0.0011106993770226836,
                0.0006952813128009439,
                0.0013807633658871055,
                0.0013502822257578373,
                0.001112452708184719,
                0.001254822127521038,
                0.0012026663171127439,
                0.0013978614006191492,
                0.0007340327138081193,
                0.0010858166497200727,
                0.0009732430917210877,
                0.0012798000825569034,
                0.0009692157036624849,
                0.0011848669964820147,
                0.0010703187435865402,
                0.0008760608616285026,
                0.0010626441799104214,
                0.0006705807754769921,
                0.0010143843246623874,
                0.0009868681663647294,
                0.0011011705501005054,
                0.0008553587831556797
            ]
        },
        {
            "bw": 8,
            "dtype": "INT",
            "enc_type": "PER_CHANNEL",
            "is_sym": true,
            "name": "model.encoder.layers.12.conv.weight",
            "offset": [
                -128,
                -128,
                -128,
                -128,
                -128,
                -128,
                -128,
                -128,
                -128,
                -128,
                -128,
                -128,
                -128,
                -128,
                -128,
                -128,
                -128,
                -128,
                -128,
                -128,
                -128,
                -128,
                -128,
                -128,
                -128,
                -128,
                -128,
                -128,
                -128,
                -128,
                -128,
                -128
            ],
            "scale": [
                0.0016281155403703451,
                0.0017496297368779778,
                0.0014589298516511917,
                0.0010317056439816952,
                0.0014080385444685817,
                0.0018531018868088722,
                0.0020733417477458715,
                0.001640391070395708,
                0.0010859868489205837,
                0.0015479647554457188,
                0.002362700179219246,
                0.0020808668341487646,
                0.0019231083570048213,
                0.0011451947502791882,
                0.0014697982696816325,
                0.0008443291299045086,
                0.0008268188103102148,
                0.0013867609668523073,
                0.0015318564837798476,
                0.0017733832355588675,
                0.001164123648777604,
                0.0022158955689519644,
                0.0009774097707122564,
                0.0013984780525788665,
                0.0011452158214524388,
                0.0014943542191758752,
                0.0012555663706734776,
                0.0008861657697707415,
                0.0012599820038303733,
                0.001753457123413682,
                0.0015464120078831911,
                0.0013105892576277256
            ]
        },
        {
            "bw": 8,
            "dtype": "INT",
            "enc_type": "PER_CHANNEL",
            "is_sym": true,
            "name": "model.encoder.layers.13.conv.weight",
            "offset": [
                -128,
                -128,
                -128,
                -128,
                -128,
                -128,
                -128,
                -128,
                -128,
                -128,
                -128,
                -128,
                -128,
                -128,
                -128,
                -128,
                -128,
                -128,
                -128,
                -128,
                -128,
                -128,
                -128,
                -128,
                -128,
                -128,
                -128,
                -128,
                -128,
                -128,
                -128,
                -128
            ],
            "scale": [
                0.0014658040599897504,
                0.002086981665343046,
                0.00141271878965199,
                0.0019789920188486576,
                0.0012780496617779136,
                0.0011245297500863671,
                0.0013601633254438639,
                0.0016475588781759143,
                0.0010934098390862346,
                0.001000066171400249,
                0.0012412599753588438,
                0.0011623138561844826,
                0.0015745811397209764,
                0.001402060384862125,
                0.0014421020168811083,
                0.001118177897296846,
                0.000910725852008909,
                0.0017352084396407008,
                0.0013075550086796284,
                0.0012778181117027998,
                0.0011308754328638315,
                0.0015180835034698248,
                0.0013747781049460173,
                0.0014419099316000938,
                0.0016384281916543841,
                0.0016540060751140118,
                0.0011676221620291471,
                0.0013420518953353167,
                0.0013554304605349898,
                0.0012161919148638844,
                0.001145192887634039,
                0.0014209685614332557
            ]
        },
        {
            "bw": 8,
            "dtype": "INT",
            "enc_type": "PER_CHANNEL",
            "is_sym": true,
            "name": "model.encoder.layers.14.conv.weight",
            "offset": [
                -128,
                -128,
                -128,
                -128,
                -128,
                -128,
                -128,
                -128,
                -128,
                -128,
                -128,
                -128,
                -128,
                -128,
                -128,
                -128,
                -128,
                -128,
                -128,
                -128,
                -128,
                -128,
                -128,
                -128,
                -128,
                -128,
                -128,
                -128,
                -128,
                -128,
                -128,
                -128
            ],
            "scale": [
                0.0024476072285324335,
                0.0026260705199092627,
                0.001978884916752577,
                0.0018729030853137374,
                0.0027212256100028753,
                0.0021228292025625706,
                0.0020209793001413345,
                0.0020500372629612684,
                0.001963516930118203,
                0.0019414756679907441,
                0.0018831690540537238,
                0.0020150362979620695,
                0.002278194297105074,
                0.002416773932054639,
                0.001859181560575962,
                0.002007126109674573,
                0.0025293349754065275,
                0.0023053735494613647,
                0.0016265191370621324,
                0.0016815460985526443,
                0.002155169378966093,
                0.0015810710610821843,
                0.0025706409942358732,
                0.001984246540814638,
                0.002421922516077757,
                0.002114255214110017,
                0.002458281349390745,
                0.0020214784890413284,
                0.0017983238212764263,
                0.0026831997092813253,
                0.0020774737931787968,
                0.001704587833955884
            ]
        },
        {
            "bw": 8,
            "dtype": "INT",
            "enc_type": "PER_CHANNEL",
            "is_sym": true,
            "name": "model.encoder.layers.15.conv.weight",
            "offset": [
                -128,
                -128,
                -128,
                -128,
                -128,
                -128,
                -128,
                -128,
                -128,
                -128,
                -128,
                -128,
                -128,
                -128,
                -128,
                -128,
                -128,
                -128,
                -128,
                -128,
                -128,
                -128,
                -128,
                -128,
                -128,
                -128,
                -128,
                -128,
                -128,
                -128,
                -128,
                -128
            ],
            "scale": [
                0.0011965371668338776,
                0.001036656554788351,
                0.001960281515493989,
                0.0016625053249299526,
                0.0010385549394413829,
                0.0011908201267942786,
                0.0016228014137595892,
                0.0012240491341799498,
                0.001248297281563282,
                0.0011577887926250696,
                0.0010538703063502908,
                0.0018958220025524497,
                0.001884962897747755,
                0.0016001358162611723,
                0.0011248573428019881,
                0.0011116788955405354,
                0.0014861618401482701,
                0.001862086239270866,
                0.001457028090953827,
                0.0014341212809085846,
                0.0015010719653218985,
                0.001154146040789783,
                0.0019706578459590673,
                0.0014599129790440202,
                0.001163122127763927,
                0.0013129671569913626,
                0.001574019086547196,
                0.0010738347191363573,
                0.0011880388483405113,
                0.0009778090752661228,
                0.0018449664348736405,
                0.0010959462961181998
            ]
        },
        {
            "bw": 8,
            "dtype": "INT",
            "enc_type": "PER_CHANNEL",
            "is_sym": true,
            "name": "model.encoder.layers.16.conv.weight",
            "offset": [
                -128,
                -128,
                -128,
                -128,
                -128,
                -128,
                -128,
                -128,
                -128,
                -128,
                -128,
                -128,
                -128,
                -128,
                -128,
                -128,
                -128,
                -128,
                -128,
                -128,
                -128,
                -128,
                -128,
                -128,
                -128,
                -128,
                -128,
                -128,
                -128,
                -128,
                -128,
                -128
            ],
            "scale": [
                0.0026933937333524227,
                0.0030202821362763643,
                0.0017332866555079818,
                0.0024682097136974335,
                0.0028475988656282425,
                0.001956884516403079,
                0.002048854250460863,
                0.0020837546326220036,
                0.0020603996235877275,
                0.0024504195898771286,
                0.00244710361585021,
                0.0027448285836726427,
                0.0026319625321775675,
                0.0017214503604918718,
                0.0021294814068824053,
                0.0014364334056153893,
                0.0018455804092809558,
                0.0018036938272416592,
                0.0018592444248497486,
                0.0029169442132115364,
                0.002167843282222748,
                0.0015342100523412228,
                0.0020248389337211847,
                0.002224461641162634,
                0.0014823046512901783,
                0.0019285213202238083,
                0.0017236701678484678,
                0.002253302838653326,
                0.0020062087569385767,
                0.001752458862029016,
                0.0029938265215605497,
                0.0026229475624859333
            ]
        },
        {
            "bw": 8,
            "dtype": "INT",
            "enc_type": "PER_CHANNEL",
            "is_sym": true,
            "name": "model.encoder.layers.17.conv.weight",
            "offset": [
                -128,
                -128,
                -128,
                -128,
                -128,
                -128,
                -128,
                -128,
                -128,
                -128,
                -128,
                -128,
                -128,
                -128,
                -128,
                -128,
                -128,
                -128,
                -128,
                -128,
                -128,
                -128,
                -128,
                -128,
                -128,
                -128,
                -128,
                -128,
                -128,
                -128,
                -128,
                -128
            ],
            "scale": [
                0.0009805032750591636,
                0.000973260379396379,
                0.0010680396808311343,
                0.000990578904747963,
                0.0012083351612091064,
                0.0012455086689442396,
                0.0012080279411748052,
                0.0009272009483538568,
                0.0010700356215238571,
                0.0012713908217847347,
                0.0011310366680845618,
                0.0011520349653437734,
                0.000979150994680822,
                0.0010122964158654213,
                0.0012663283850997686,
                0.0011035421630367637,
                0.0011795529862865806,
                0.000998026691377163,
                0.001111981924623251,
                0.001181302242912352,
                0.0011186255142092705,
                0.0013934322632849216,
                0.0009990722173824906,
                0.0012025065952911973,
                0.0010660873958840966,
                0.0008123336592689157,
                0.0010939724743366241,
                0.0011257141595706344,
                0.0010298147099092603,
                0.001460330211557448,
                0.0014021823881193995,
                0.0012406528694555163
            ]
        },
        {
            "bw": 8,
            "dtype": "INT",
            "enc_type": "PER_CHANNEL",
            "is_sym": true,
            "name": "model.volume_gen.reference_mapping.linear1.weight",
            "offset": [
                -128,
                -128,
                -128,
                -128,
                -128,
                -128,
                -128,
                -128,
                -128,
                -128,
                -128,
                -128,
                -128,
                -128,
                -128,
                -128,
                -128,
                -128,
                -128,
                -128,
                -128,
                -128,
                -128,
                -128,
                -128,
                -128,
                -128,
                -128,
                -128,
                -128,
                -128,
                -128
            ],
            "scale": [
                0.005113424267619848,
                0.004747512750327587,
                0.0014690295793116093,
                0.0025549852289259434,
                0.0061583854258060455,
                0.006736568175256252,
                0.0023068736772984266,
                0.005354463122785091,
                0.008351055905222893,
                0.004656597971916199,
                0.004094382748007774,
                0.0015080934390425682,
                0.0042703947983682156,
                0.00317720347084105,
                0.004751949571073055,
                0.0035859341733157635,
                0.0023857669439166784,
                0.0016839641612023115,
                0.0029533531051129103,
                0.0036026481539011,
                0.006340779364109039,
                0.004483587108552456,
                0.008334644138813019,
                0.003146931529045105,
                0.0016456737648695707,
                0.003395739011466503,
                0.004812187515199184,
                0.002643533982336521,
                0.0024470286443829536,
                0.003126932540908456,
                0.005371785257011652,
                0.001490341266617179
            ]
        },
        {
            "bw": 8,
            "dtype": "INT",
            "enc_type": "PER_CHANNEL",
            "is_sym": true,
            "name": "model.volume_gen.reference_mapping.linear2.weight",
            "offset": [
                -128,
                -128,
                -128,
                -128,
                -128,
                -128,
                -128,
                -128,
                -128,
                -128,
                -128,
                -128,
                -128,
                -128,
                -128,
                -128,
                -128,
                -128,
                -128,
                -128,
                -128,
                -128,
                -128,
                -128,
                -128,
                -128,
                -128,
                -128,
                -128,
                -128,
                -128,
                -128
            ],
            "scale": [
                0.0019453491549938917,
                0.002003215719014406,
                0.002110336907207966,
                0.00260549527592957,
                0.0019582265522331,
                0.0014495906652882695,
                0.001366457319818437,
                0.001944947987794876,
                0.0024913731031119823,
                0.0018661025678738952,
                0.0020654182881116867,
                0.0021772042382508516,
                0.0018555187853053212,
                0.0018965989584103227,
                0.0014119780389592052,
                0.0023427417036145926,
                0.0018725884146988392,
                0.0023693738039582968,
                0.0018021425930783153,
                0.002099544508382678,
                0.002534666331484914,
                0.001532366732135415,
                0.0017183247255161405,
                0.0018087360076606274,
                0.0022200883831828833,
                0.0017528688767924905,
                0.0017664327751845121,
                0.0025532653089612722,
                0.0016888560494408011,
                0.0026307711377739906,
                0.0029188236221671104,
                0.002802372444421053
            ]
        },
        {
            "bw": 8,
            "dtype": "INT",
            "enc_type": "PER_CHANNEL",
            "is_sym": true,
            "name": "model.volume_gen.target_mapping.linear1.weight",
            "offset": [
                -128,
                -128,
                -128,
                -128,
                -128,
                -128,
                -128,
                -128,
                -128,
                -128,
                -128,
                -128,
                -128,
                -128,
                -128,
                -128,
                -128,
                -128,
                -128,
                -128,
                -128,
                -128,
                -128,
                -128,
                -128,
                -128,
                -128,
                -128,
                -128,
                -128,
                -128,
                -128
            ],
            "scale": [
                0.002833270002156496,
                0.001517987227998674,
                0.002134922193363309,
                0.002093635266646743,
                0.0015925646293908358,
                0.0027312145102769136,
                0.0014138254337012768,
                0.002878048922866583,
                0.001999487867578864,
                0.002207530429586768,
                0.002168172737583518,
                0.002635740675032139,
                0.00349986320361495,
                0.002436291193589568,
                0.0026082575786858797,
                0.0024589342065155506,
                0.004737370181828737,
                0.002508151810616255,
                0.002174341818317771,
                0.002201453782618046,
                0.003529999405145645,
                0.0028867810033261776,
                0.001705723232589662,
                0.0025066693779081106,
                0.00235425285063684,
                0.002514076419174671,
                0.002018369035795331,
                0.0033601801842451096,
                0.0028939584735780954,
                0.00547356903553009,
                0.0021359226666390896,
                0.0024533856194466352
            ]
        },
        {
            "bw": 8,
            "dtype": "INT",
            "enc_type": "PER_CHANNEL",
            "is_sym": true,
            "name": "model.volume_gen.target_mapping.linear2.weight",
            "offset": [
                -128
            ],
            "scale": [
                0.0023841552902013063
            ]
        },
        {
            "bw": 8,
            "dtype": "INT",
            "enc_type": "PER_CHANNEL",
            "is_sym": true,
            "name": "model.state_conv.conv.weight",
            "offset": [
                -128,
                -128,
                -128,
                -128,
                -128,
                -128,
                -128,
                -128,
                -128,
                -128,
                -128,
                -128,
                -128,
                -128,
                -128,
                -128,
                -128,
                -128,
                -128,
                -128,
                -128,
                -128,
                -128,
                -128,
                -128,
                -128,
                -128,
                -128,
                -128,
                -128,
                -128,
                -128,
                -128,
                -128,
                -128,
                -128,
                -128,
                -128,
                -128,
                -128,
                -128,
                -128,
                -128,
                -128,
                -128,
                -128,
                -128,
                -128,
                -128,
                -128,
                -128,
                -128,
                -128,
                -128,
                -128,
                -128,
                -128,
                -128,
                -128,
                -128,
                -128,
                -128,
                -128,
                -128
            ],
            "scale": [
                0.0032582979183644056,
                0.003007045714184642,
                0.007665719371289015,
                0.00412732595577836,
                0.0052101463079452515,
                0.0033316572662442923,
                0.009194129146635532,
                0.006064450368285179,
                0.005143502727150917,
                0.007685061544179916,
                0.005730097182095051,
                0.005318935960531235,
                0.005232505965977907,
                0.0032984439749270678,
                0.00816801656037569,
                0.005024152807891369,
                0.005253170616924763,
                0.006770874839276075,
                0.0057530030608177185,
                0.0020020308438688517,
                0.009384465403854847,
                0.006541702896356583,
                0.007438807748258114,
                0.007294125854969025,
                0.004499036353081465,
                0.007182464003562927,
                0.003981028217822313,
                0.007657095789909363,
                0.0052412389777600765,
                0.004505081567913294,
                0.004396822769194841,
                0.01148951891809702,
                0.0044851587153971195,
                0.004593099467456341,
                0.004324585199356079,
                0.008534585125744343,
                0.005461890250444412,
                0.005897089838981628,
                0.005376518703997135,
                0.007153931073844433,
                0.005769107490777969,
                0.006318969186395407,
                0.005133378319442272,
                0.00795560609549284,
                0.005921514239162207,
                0.006741014309227467,
                0.007891764864325523,
                0.006857123225927353,
                0.006596610881388187,
                0.006032849662005901,
                0.0034030391834676266,
                0.0028747213073074818,
                0.0089599983766675,
                0.005120298359543085,
                0.006104623433202505,
                0.00626769894734025,
                0.008721609599888325,
                0.005174544174224138,
                0.002495931461453438,
                0.005372245796024799,
                0.006720644887536764,
                0.00949495006352663,
                0.007302307989448309,
                0.0045479037798941135
            ]
        },
        {
            "bw": 8,
            "dtype": "INT",
            "enc_type": "PER_CHANNEL",
            "is_sym": true,
            "name": "model.update_block.encoder.convc1.weight",
            "offset": [
                -128,
                -128,
                -128,
                -128,
                -128,
                -128,
                -128,
                -128,
                -128,
                -128,
                -128,
                -128,
                -128,
                -128,
                -128,
                -128,
                -128,
                -128,
                -128,
                -128,
                -128,
                -128,
                -128,
                -128,
                -128,
                -128,
                -128,
                -128,
                -128,
                -128,
                -128,
                -128,
                -128,
                -128,
                -128,
                -128,
                -128,
                -128,
                -128,
                -128,
                -128,
                -128,
                -128,
                -128,
                -128,
                -128,
                -128,
                -128,
                -128,
                -128,
                -128,
                -128,
                -128,
                -128,
                -128,
                -128,
                -128,
                -128,
                -128,
                -128,
                -128,
                -128,
                -128,
                -128
            ],
            "scale": [
                0.0048254067078232765,
                0.008948798291385174,
                0.002431949833407998,
                0.004742964170873165,
                0.008899341337382793,
                0.0084407152608037,
                0.005546133033931255,
                0.007092565298080444,
                0.003809981979429722,
                0.00279408972710371,
                0.005771986208856106,
                0.003883713623508811,
                0.006851709447801113,
                0.0024950511287897825,
                0.010795601643621922,
                0.0030641250777989626,
                0.0029197754338383675,
                0.001916046952828765,
                0.009913986548781395,
                0.0018379597458988428,
                0.002048446564003825,
                0.004033167380839586,
                0.005771314259618521,
                0.0022651595063507557,
                0.003277611918747425,
                0.009718885645270348,
                0.00620291568338871,
                0.0038361542392522097,
                0.002535726875066757,
                0.003221594961360097,
                0.004659385420382023,
                0.006278252694755793,
                0.0027352580800652504,
                0.0067422762513160706,
                0.004837681073695421,
                0.0046435012482106686,
                0.003923197276890278,
                0.004321714397519827,
                0.0025902087800204754,
                0.003504048567265272,
                0.007975407876074314,
                0.009625761769711971,
                0.005483807064592838,
                0.006422872189432383,
                0.0046587539836764336,
                0.005540330894291401,
                0.0013163244584575295,
                0.005308775696903467,
                0.004063788801431656,
                0.006222378928214312,
                0.006442299112677574,
                0.0020186149049550295,
                0.009596463292837143,
                0.007287174928933382,
                0.005208959802985191,
                0.0027662022039294243,
                0.003172331489622593,
                0.005508976522833109,
                0.0048279473558068275,
                0.004486588761210442,
                0.0024647361133247614,
                0.00689436262473464,
                0.004767534788697958,
                0.0024530489463359118
            ]
        },
        {
            "bw": 8,
            "dtype": "INT",
            "enc_type": "PER_CHANNEL",
            "is_sym": true,
            "name": "model.update_block.encoder.convc2.weight",
            "offset": [
                -128,
                -128,
                -128,
                -128,
                -128,
                -128,
                -128,
                -128,
                -128,
                -128,
                -128,
                -128,
                -128,
                -128,
                -128,
                -128,
                -128,
                -128,
                -128,
                -128,
                -128,
                -128,
                -128,
                -128,
                -128,
                -128,
                -128,
                -128,
                -128,
                -128,
                -128,
                -128,
                -128,
                -128,
                -128,
                -128,
                -128,
                -128,
                -128,
                -128,
                -128,
                -128,
                -128,
                -128,
                -128,
                -128,
                -128,
                -128,
                -128,
                -128,
                -128,
                -128,
                -128,
                -128,
                -128,
                -128,
                -128,
                -128,
                -128,
                -128,
                -128,
                -128,
                -128,
                -128
            ],
            "scale": [
                0.002891802228987217,
                0.0035273313988000154,
                0.002719977404922247,
                0.003483567154034972,
                0.004877946339547634,
                0.007571320980787277,
                0.004736540839076042,
                0.005009270738810301,
                0.003425294067710638,
                0.0034405740443617105,
                0.005083929281681776,
                0.005564677994698286,
                0.0038093768525868654,
                0.0039949496276676655,
                0.003965823911130428,
                0.0030375849455595016,
                0.0021590583492070436,
                0.0028063077479600906,
                0.0005912103806622326,
                0.0021951638627797365,
                0.004906645510345697,
                0.004683408420532942,
                0.0031532514840364456,
                0.0025475427974015474,
                0.00326945586130023,
                0.0056290170177817345,
                0.005140944849699736,
                0.003683997318148613,
                0.003245796775445342,
                0.004212068859487772,
                0.0031953651923686266,
                0.00208114180713892,
                0.0021897824481129646,
                0.002937612123787403,
                0.002057542558759451,
                0.00044139864621683955,
                0.0027464870363473892,
                0.004223921801894903,
                0.003483974142000079,
                0.004286597948521376,
                0.00634434400126338,
                0.002190180355682969,
                0.0033858558163046837,
                0.0024386944714933634,
                0.0037969022523611784,
                0.005214294884353876,
                0.0004928806447423995,
                0.002334433374926448,
                0.0037423442117869854,
                0.003557917196303606,
                0.004327758215367794,
                0.003801972372457385,
                0.007316042203456163,
                0.004779854789376259,
                0.005089416168630123,
                0.003579184180125594,
                0.0005810381844639778,
                0.004024577792733908,
                0.002494967309758067,
                0.004110344685614109,
                0.004426312167197466,
                0.004453482571989298,
                0.002509498503059149,
                0.0037775197997689247
            ]
        },
        {
            "bw": 8,
            "dtype": "INT",
            "enc_type": "PER_CHANNEL",
            "is_sym": true,
            "name": "model.update_block.encoder.convd1.weight",
            "offset": [
                -128,
                -128,
                -128,
                -128,
                -128,
                -128,
                -128,
                -128,
                -128,
                -128,
                -128,
                -128,
                -128,
                -128,
                -128,
                -128,
                -128,
                -128,
                -128,
                -128,
                -128,
                -128,
                -128,
                -128,
                -128,
                -128,
                -128,
                -128,
                -128,
                -128,
                -128,
                -128,
                -128,
                -128,
                -128,
                -128,
                -128,
                -128,
                -128,
                -128,
                -128,
                -128,
                -128,
                -128,
                -128,
                -128,
                -128,
                -128,
                -128,
                -128,
                -128,
                -128,
                -128,
                -128,
                -128,
                -128,
                -128,
                -128,
                -128,
                -128,
                -128,
                -128,
                -128,
                -128
            ],
            "scale": [
                0.0025122526567429304,
                0.0015014648670330644,
                0.0021110493689775467,
                0.002118027536198497,
                0.001935715088620782,
                0.0017970508197322488,
                0.0016124527901411057,
                0.0015329282032325864,
                0.001659566885791719,
                0.0026828411500900984,
                0.0015667647821828723,
                0.0015012496151030064,
                0.00206106249243021,
                0.0014383859233930707,
                0.0013095746980980039,
                0.001403555739670992,
                0.0020120192784816027,
                0.004376429598778486,
                0.0020276550203561783,
                0.0011841472005471587,
                0.0012927319621667266,
                0.0035047053825110197,
                0.001314666005782783,
                0.013584200292825699,
                0.02060626447200775,
                0.0013108181301504374,
                0.0015939694130793214,
                0.0014333399012684822,
                0.0017506752628833055,
                0.001636669272556901,
                0.0021132200490683317,
                0.001998479478061199,
                0.0027269823476672173,
                0.0016091233119368553,
                0.001891404390335083,
                0.0020259846933186054,
                0.001492197159677744,
                0.020018424838781357,
                0.0023878912907093763,
                0.0015444349264726043,
                0.0017866891575977206,
                0.0016175045166164637,
                0.0015862596919760108,
                0.021547414362430573,
                0.00339814112521708,
                0.0021582755725830793,
                0.001735403435304761,
                0.002153766108676791,
                0.0015522749163210392,
                0.002297966508194804,
                0.0030678596813231707,
                0.01951860822737217,
                0.0016295543173328042,
                0.0015979374293237925,
                0.005519675090909004,
                0.0017066104337573051,
                0.002396684605628252,
                0.0012306970311328769,
                0.015017475932836533,
                0.0019689679611474276,
                0.010271569713950157,
                0.001302291639149189,
                0.001363932155072689,
                0.0015463265590369701
            ]
        },
        {
            "bw": 8,
            "dtype": "INT",
            "enc_type": "PER_CHANNEL",
            "is_sym": true,
            "name": "model.update_block.encoder.convd2.weight",
            "offset": [
                -128,
                -128,
                -128,
                -128,
                -128,
                -128,
                -128,
                -128,
                -128,
                -128,
                -128,
                -128,
                -128,
                -128,
                -128,
                -128,
                -128,
                -128,
                -128,
                -128,
                -128,
                -128,
                -128,
                -128,
                -128,
                -128,
                -128,
                -128,
                -128,
                -128,
                -128,
                -128,
                -128,
                -128,
                -128,
                -128,
                -128,
                -128,
                -128,
                -128,
                -128,
                -128,
                -128,
                -128,
                -128,
                -128,
                -128,
                -128,
                -128,
                -128,
                -128,
                -128,
                -128,
                -128,
                -128,
                -128,
                -128,
                -128,
                -128,
                -128,
                -128,
                -128,
                -128,
                -128
            ],
            "scale": [
                0.006882078945636749,
                0.005210068542510271,
                0.0026914915069937706,
                0.004561671521514654,
                0.0037820409052073956,
                0.0030802020337432623,
                0.0032667582854628563,
                0.008432120084762573,
                0.003107595257461071,
                0.004342623520642519,
                0.005778411868959665,
                0.005330106243491173,
                0.0038021376822143793,
                0.0037289715837687254,
                0.0041277180425822735,
                0.0028576047625392675,
                0.002360932994633913,
                0.004639166872948408,
                0.004909495357424021,
                0.0005727392272092402,
                0.005097778979688883,
                0.0044279517605900764,
                0.0035127182491123676,
                0.006950011942535639,
                0.0006864413153380156,
                0.002098343800753355,
                0.0037026472855359316,
                0.004553979262709618,
                0.0035954900085926056,
                0.00455855717882514,
                0.0039879619143903255,
                0.0034870028030127287,
                0.0035947177093476057,
                0.00339429615996778,
                0.0037999115884304047,
                0.004048137925565243,
                0.004028792027384043,
                0.003713853657245636,
                0.003345439676195383,
                0.0035793930292129517,
                0.004491467960178852,
                0.0004791057435795665,
                0.009718948975205421,
                0.003013567766174674,
                0.0070096952840685844,
                0.004403748083859682,
                0.011535459198057652,
                0.0036892073694616556,
                0.0017868734430521727,
                0.006233994383364916,
                0.010848389007151127,
                0.003760261693969369,
                0.002579319756478071,
                0.00406300975009799,
                0.002854509511962533,
                0.0030865920707583427,
                0.004954601172357798,
                0.006215374916791916,
                0.00459484476596117,
                0.003313338616862893,
                0.006653389427810907,
                0.003317931666970253,
                0.005957030691206455,
                0.003537941724061966
            ]
        },
        {
            "bw": 8,
            "dtype": "INT",
            "enc_type": "PER_CHANNEL",
            "is_sym": true,
            "name": "model.update_block.encoder.conv.weight",
            "offset": [
                -128,
                -128,
                -128,
                -128,
                -128,
                -128,
                -128,
                -128,
                -128,
                -128,
                -128,
                -128,
                -128,
                -128,
                -128,
                -128,
                -128,
                -128,
                -128,
                -128,
                -128,
                -128,
                -128,
                -128,
                -128,
                -128,
                -128,
                -128,
                -128,
                -128,
                -128,
                -128,
                -128,
                -128,
                -128,
                -128,
                -128,
                -128,
                -128,
                -128,
                -128,
                -128,
                -128,
                -128,
                -128,
                -128,
                -128,
                -128,
                -128,
                -128,
                -128,
                -128,
                -128,
                -128,
                -128,
                -128,
                -128,
                -128,
                -128,
                -128,
                -128,
                -128,
                -128,
                -128,
                -128,
                -128,
                -128,
                -128,
                -128,
                -128,
                -128,
                -128,
                -128,
                -128,
                -128,
                -128,
                -128,
                -128,
                -128,
                -128,
                -128,
                -128,
                -128,
                -128,
                -128,
                -128,
                -128,
                -128,
                -128,
                -128,
                -128,
                -128,
                -128,
                -128,
                -128,
                -128,
                -128,
                -128,
                -128,
                -128,
                -128,
                -128,
                -128,
                -128,
                -128,
                -128,
                -128,
                -128,
                -128,
                -128,
                -128,
                -128,
                -128,
                -128,
                -128,
                -128,
                -128,
                -128,
                -128,
                -128,
                -128,
                -128,
                -128,
                -128,
                -128,
                -128,
                -128
            ],
            "scale": [
                0.0031485487706959248,
                0.0033932423684746027,
                0.003870591754093766,
                0.004409199580550194,
                0.006353300530463457,
                0.005189341958612204,
                0.0027211830019950867,
                0.0042131515219807625,
                0.003377448068931699,
                0.005232180934399366,
                0.0053292266093194485,
                0.004191860090941191,
                0.0028454612474888563,
                0.003764863358810544,
                0.003093303646892309,
                0.003973682411015034,
                0.0038804863579571247,
                0.004145157057791948,
                0.004197088070213795,
                0.003455196740105748,
                0.00372272077947855,
                0.004493969492614269,
                0.003386212745681405,
                0.0032389257103204727,
                0.004099186509847641,
                0.0036920623388141394,
                0.005734392441809177,
                0.004272266291081905,
                0.004580753855407238,
                0.000796171952970326,
                0.004659715574234724,
                0.003986249677836895,
                0.004456893540918827,
                0.004528476856648922,
                0.004120052792131901,
                0.003487147158011794,
                0.0038070313166826963,
                0.0027926000766456127,
                0.0038579795509576797,
                0.005580516066402197,
                0.003868893487378955,
                0.0031600967049598694,
                0.00606594979763031,
                0.006209647282958031,
                0.0077349538914859295,
                0.0032266268972307444,
                0.0040151504799723625,
                0.00550402095541358,
                0.00926049705594778,
                0.005265405867248774,
                0.003670112695544958,
                0.0031799538992345333,
                0.004052354022860527,
                0.005073533393442631,
                0.004012302495539188,
                0.003852569730952382,
                0.00600590743124485,
                0.0034125472884625196,
                0.003630525665357709,
                0.004076158162206411,
                0.0030003178399056196,
                0.007469536270946264,
                0.00298969610594213,
                0.005998874548822641,
                0.005642157979309559,
                0.007165847811847925,
                0.0030083225574344397,
                0.004461468197405338,
                0.005490870214998722,
                0.0024858927354216576,
                0.00525059225037694,
                0.004186968319118023,
                0.00534976227208972,
                0.0062287659384310246,
                0.003802749328315258,
                0.003032285487279296,
                0.005218722391873598,
                0.0005855862982571125,
                0.0035263593308627605,
                0.004128139000386,
                0.0036046996247023344,
                0.0056248321197927,
                0.0040303985588252544,
                0.003616457339376211,
                0.0032434691675007343,
                0.006411991082131863,
                0.0040671732276678085,
                0.003810905385762453,
                0.0047015477903187275,
                0.003386674914509058,
                0.00567981880158186,
                0.0034054082352668047,
                0.005016797687858343,
                0.003394622355699539,
                0.005363660864531994,
                0.005326207261532545,
                0.004540645517408848,
                0.003494654083624482,
                0.004732443485409021,
                0.004266718868166208,
                0.004562860820442438,
                0.007008694112300873,
                0.004456463269889355,
                0.004279132932424545,
                0.00480979960411787,
                0.0025725013110786676,
                0.003581128316000104,
                0.004923438187688589,
                0.007142070680856705,
                0.003599377814680338,
                0.006724794395267963,
                0.002947293920442462,
                0.0054601035080850124,
                0.004255590960383415,
                0.002546589123085141,
                0.004332789219915867,
                0.003702770918607712,
                0.003945954144001007,
                0.00406707962974906,
                0.0031695649959146976,
                0.003628007834777236,
                0.004408328793942928,
                0.0036377522628754377,
                0.004917541053146124,
                0.004578266758471727,
                0.004437907598912716,
                0.0028635773342102766
            ]
        },
        {
            "bw": 8,
            "dtype": "INT",
            "enc_type": "PER_CHANNEL",
            "is_sym": true,
            "name": "model.update_block.gru.convz.weight",
            "offset": [
                -128,
                -128,
                -128,
                -128,
                -128,
                -128,
                -128,
                -128,
                -128,
                -128,
                -128,
                -128,
                -128,
                -128,
                -128,
                -128,
                -128,
                -128,
                -128,
                -128,
                -128,
                -128,
                -128,
                -128,
                -128,
                -128,
                -128,
                -128,
                -128,
                -128,
                -128,
                -128,
                -128,
                -128,
                -128,
                -128,
                -128,
                -128,
                -128,
                -128,
                -128,
                -128,
                -128,
                -128,
                -128,
                -128,
                -128,
                -128,
                -128,
                -128,
                -128,
                -128,
                -128,
                -128,
                -128,
                -128,
                -128,
                -128,
                -128,
                -128,
                -128,
                -128,
                -128,
                -128
            ],
            "scale": [
                0.0030934226233512163,
                0.003583453595638275,
                0.003504670923575759,
                0.003541382262483239,
                0.002590155228972435,
                0.0033022805582731962,
                0.0053757489658892155,
                0.0035326930228620768,
                0.0032142200507223606,
                0.0040955510921776295,
                0.0030971860978752375,
                0.003933640196919441,
                0.0055028717033565044,
                0.004684993531554937,
                0.0038350403774529696,
                0.0033815130591392517,
                0.0038433014415204525,
                0.0028604415711015463,
                0.005047495011240244,
                0.004063315689563751,
                0.005475480109453201,
                0.00471910135820508,
                0.0028987079858779907,
                0.0026812758296728134,
                0.005203319247812033,
                0.004073536489158869,
                0.0037506010849028826,
                0.003295524977147579,
                0.004236716777086258,
                0.0036355701740831137,
                0.0029291354585438967,
                0.003828497603535652,
                0.00344826839864254,
                0.0037377052940428257,
                0.005510219372808933,
                0.006531624123454094,
                0.004064168315380812,
                0.0038082196842879057,
                0.003484428161755204,
                0.004255714826285839,
                0.003832973772659898,
                0.0029725658241659403,
                0.0035753226839005947,
                0.0036406428553164005,
                0.006445565726608038,
                0.0033889294136315584,
                0.005054990760982037,
                0.0030442271381616592,
                0.004816737025976181,
                0.004282602574676275,
                0.009163966402411461,
                0.003488054731860757,
                0.004655482713133097,
                0.002516052220016718,
                0.004475349094718695,
                0.003226751694455743,
                0.003615539288148284,
                0.004359356593340635,
                0.003995484206825495,
                0.0041440874338150024,
                0.003906358033418655,
                0.004800338763743639,
                0.004452558234333992,
                0.003695649327710271
            ]
        },
        {
            "bw": 8,
            "dtype": "INT",
            "enc_type": "PER_CHANNEL",
            "is_sym": true,
            "name": "model.update_block.gru.convr.weight",
            "offset": [
                -128,
                -128,
                -128,
                -128,
                -128,
                -128,
                -128,
                -128,
                -128,
                -128,
                -128,
                -128,
                -128,
                -128,
                -128,
                -128,
                -128,
                -128,
                -128,
                -128,
                -128,
                -128,
                -128,
                -128,
                -128,
                -128,
                -128,
                -128,
                -128,
                -128,
                -128,
                -128,
                -128,
                -128,
                -128,
                -128,
                -128,
                -128,
                -128,
                -128,
                -128,
                -128,
                -128,
                -128,
                -128,
                -128,
                -128,
                -128,
                -128,
                -128,
                -128,
                -128,
                -128,
                -128,
                -128,
                -128,
                -128,
                -128,
                -128,
                -128,
                -128,
                -128,
                -128,
                -128
            ],
            "scale": [
                0.004247863776981831,
                0.00417427159845829,
                0.0045515610836446285,
                0.0034210688900202513,
                0.004578093532472849,
                0.004643042106181383,
                0.004259810317307711,
                0.004229134414345026,
                0.003672600258141756,
                0.0037434690166264772,
                0.006272778380662203,
                0.003440381260588765,
                0.004123006947338581,
                0.004622431006282568,
                0.005131246522068977,
                0.005984637886285782,
                0.006796271074563265,
                0.004896906670182943,
                0.004589936230331659,
                0.004239880014210939,
                0.00415449496358633,
                0.004379537887871265,
                0.0044183977879583836,
                0.004147921223193407,
                0.004597376100718975,
                0.004194267559796572,
                0.0031661451794207096,
                0.004030097275972366,
                0.003651946084573865,
                0.0029678659047931433,
                0.004235934466123581,
                0.004116363357752562,
                0.004149774555116892,
                0.004217695910483599,
                0.003322281176224351,
                0.004841726738959551,
                0.003908961080014706,
                0.003917099442332983,
                0.004521282855421305,
                0.0040827225893735886,
                0.005704606883227825,
                0.006062493659555912,
                0.005170916672796011,
                0.005018547642976046,
                0.0037739048711955547,
                0.004180027637630701,
                0.004741702228784561,
                0.0045186555944383144,
                0.004264633171260357,
                0.00369005324319005,
                0.0044073546305298805,
                0.00328162987716496,
                0.003629633691161871,
                0.005295910406857729,
                0.004722533281892538,
                0.004099116660654545,
                0.003984989132732153,
                0.0035741892643272877,
                0.004022303037345409,
                0.004134493414312601,
                0.006497605238109827,
                0.0037919566966593266,
                0.006276985164731741,
                0.00374427018687129
            ]
        },
        {
            "bw": 8,
            "dtype": "INT",
            "enc_type": "PER_CHANNEL",
            "is_sym": true,
            "name": "model.update_block.gru.convq.weight",
            "offset": [
                -128,
                -128,
                -128,
                -128,
                -128,
                -128,
                -128,
                -128,
                -128,
                -128,
                -128,
